{
  "0": "\u0000",
  "1": "\u0001",
  "2": "\u0002",
  "3": "\u0003",
  "4": "\u0004",
  "5": "\u0005",
  "6": "\u0006",
  "7": "\u0007",
  "8": "\b",
  "9": "\t",
  "10": "\n",
  "11": "\u000b",
  "12": "\f",
  "13": "\r",
  "14": "\u000e",
  "15": "\u000f",
  "16": "\u0010",
  "17": "\u0011",
  "18": "\u0012",
  "19": "\u0013",
  "20": "\u0014",
  "21": "\u0015",
  "22": "\u0016",
  "23": "\u0017",
  "24": "\u0018",
  "25": "\u0019",
  "26": "\u001a",
  "27": "\u001b",
  "28": "\u001c",
  "29": "\u001d",
  "30": "\u001e",
  "31": "\u001f",
  "32": " ",
  "33": "!",
  "34": "\"",
  "35": "#",
  "36": "$",
  "37": "%",
  "38": "&",
  "39": "'",
  "40": "(",
  "41": ")",
  "42": "*",
  "43": "+",
  "44": ",",
  "45": "-",
  "46": ".",
  "47": "/",
  "48": "0",
  "49": "1",
  "50": "2",
  "51": "3",
  "52": "4",
  "53": "5",
  "54": "6",
  "55": "7",
  "56": "8",
  "57": "9",
  "58": ":",
  "59": ";",
  "60": "<",
  "61": "=",
  "62": ">",
  "63": "?",
  "64": "@",
  "65": "A",
  "66": "B",
  "67": "C",
  "68": "D",
  "69": "E",
  "70": "F",
  "71": "G",
  "72": "H",
  "73": "I",
  "74": "J",
  "75": "K",
  "76": "L",
  "77": "M",
  "78": "N",
  "79": "O",
  "80": "P",
  "81": "Q",
  "82": "R",
  "83": "S",
  "84": "T",
  "85": "U",
  "86": "V",
  "87": "W",
  "88": "X",
  "89": "Y",
  "90": "Z",
  "91": "[",
  "92": "\\",
  "93": "]",
  "94": "^",
  "95": "_",
  "96": "`",
  "97": "a",
  "98": "b",
  "99": "c",
  "100": "d",
  "101": "e",
  "102": "f",
  "103": "g",
  "104": "h",
  "105": "i",
  "106": "j",
  "107": "k",
  "108": "l",
  "109": "m",
  "110": "n",
  "111": "o",
  "112": "p",
  "113": "q",
  "114": "r",
  "115": "s",
  "116": "t",
  "117": "u",
  "118": "v",
  "119": "w",
  "120": "x",
  "121": "y",
  "122": "z",
  "123": "{",
  "124": "|",
  "125": "}",
  "126": "~",
  "127": "",
  "128": "",
  "129": "",
  "130": "",
  "131": "",
  "132": "",
  "133": "",
  "134": "",
  "135": "",
  "136": "",
  "137": "",
  "138": "",
  "139": "",
  "140": "",
  "141": "",
  "142": "",
  "143": "",
  "144": "",
  "145": "",
  "146": "",
  "147": "",
  "148": "",
  "149": "",
  "150": "",
  "151": "",
  "152": "",
  "153": "",
  "154": "",
  "155": "",
  "156": "",
  "157": "",
  "158": "",
  "159": "",
  "160": " ",
  "161": "¡",
  "162": "¢",
  "163": "£",
  "164": "¤",
  "165": "¥",
  "166": "¦",
  "167": "§",
  "168": "¨",
  "169": "©",
  "170": "ª",
  "171": "«",
  "172": "¬",
  "173": "­",
  "174": "®",
  "175": "¯",
  "176": "°",
  "177": "±",
  "178": "²",
  "179": "³",
  "180": "´",
  "181": "µ",
  "182": "¶",
  "183": "·",
  "184": "¸",
  "185": "¹",
  "186": "º",
  "187": "»",
  "188": "¼",
  "189": "½",
  "190": "¾",
  "191": "¿",
  "192": "À",
  "193": "Á",
  "194": "Â",
  "195": "Ã",
  "196": "Ä",
  "197": "Å",
  "198": "Æ",
  "199": "Ç",
  "200": "È",
  "201": "É",
  "202": "Ê",
  "203": "Ë",
  "204": "Ì",
  "205": "Í",
  "206": "Î",
  "207": "Ï",
  "208": "Ð",
  "209": "Ñ",
  "210": "Ò",
  "211": "Ó",
  "212": "Ô",
  "213": "Õ",
  "214": "Ö",
  "215": "×",
  "216": "Ø",
  "217": "Ù",
  "218": "Ú",
  "219": "Û",
  "220": "Ü",
  "221": "Ý",
  "222": "Þ",
  "223": "ß",
  "224": "à",
  "225": "á",
  "226": "â",
  "227": "ã",
  "228": "ä",
  "229": "å",
  "230": "æ",
  "231": "ç",
  "232": "è",
  "233": "é",
  "234": "ê",
  "235": "ë",
  "236": "ì",
  "237": "í",
  "238": "î",
  "239": "ï",
  "240": "ð",
  "241": "ñ",
  "242": "ò",
  "243": "ó",
  "244": "ô",
  "245": "õ",
  "246": "ö",
  "247": "÷",
  "248": "ø",
  "249": "ù",
  "250": "ú",
  "251": "û",
  "252": "ü",
  "253": "ý",
  "254": "þ",
  "255": "ÿ",
  "256": "Ġ",
  "257": "œ",
  "258": "Š",
  "259": "˜",
  "260": "“",
  "261": "”",
  "262": "•",
  "263": "‰",
  "264": "‹",
  "265": "€",
  "266": "™",
  "267": "<|endoftext|>",
  "268": "he",
  "269": "Ġt",
  "270": "Ġa",
  "271": "Ġs",
  "272": "Ġw",
  "273": "nd",
  "274": "Ġthe",
  "275": "ed",
  "276": "Ġand",
  "277": "Ġto",
  "278": "Ġb",
  "279": "in",
  "280": "Ġh",
  "281": "Ġwa",
  "282": "re",
  "283": "Ġf",
  "284": "ou",
  "285": "it",
  "286": "Ġl",
  "287": "Ġc",
  "288": "er",
  "289": "Ġd",
  "290": "Ġhe",
  "291": "Ġwas",
  "292": "Ġm",
  "293": "Ġp",
  "294": "om",
  "295": "ĠT",
  "296": "Ġo",
  "297": "ay",
  "298": "ar",
  "299": "ing",
  "300": "is",
  "301": "Ġg",
  "302": "il",
  "303": "id",
  "304": "at",
  "305": "en",
  "306": "Ġn",
  "307": "Ġsa",
  "308": "Ġha",
  "309": "ĠS",
  "310": "ĠThe",
  "311": "an",
  "312": "im",
  "313": "or",
  "314": "on",
  "315": "Ġit",
  "316": "Ġth",
  "317": "ll",
  "318": "le",
  "319": "ĠH",
  "320": "Ġher",
  "321": "et",
  "322": "ot",
  "323": "ir",
  "324": "ĠShe",
  "325": "ĠHe",
  "326": "es",
  "327": "ver",
  "328": "Ġin",
  "329": "e.",
  "330": "ut",
  "331": "ow",
  "332": "ck",
  "333": "Ġe",
  "334": "ĠThey",
  "335": "Ġu",
  "336": "ld",
  "337": "oo",
  "338": "y.",
  "339": "ig",
  "340": "Ġy",
  "341": "s.",
  "342": "Ġsaid",
  "343": "Ġr",
  "344": "am",
  "345": "Ġbe",
  "346": "Ġst",
  "347": "Ġshe",
  "348": "Ġ\"",
  "349": "pp",
  "350": "ĠI",
  "351": "ith",
  "352": "Lil",
  "353": "On",
  "354": "Ġwith",
  "355": "ke",
  "356": "Ġof",
  "357": "Ġon",
  "358": "Ġso",
  "359": "ked",
  "360": "ri",
  "361": "ve",
  "362": "Ġhis",
  "363": "nt",
  "364": "Ġpl",
  "365": "ce",
  "366": "very",
  "367": "Ġyou",
  "368": "ad",
  "369": "Ġday",
  "370": "Ġthat",
  "371": "Lily",
  "372": "Ġup",
  "373": "Ġhad",
  "374": "st",
  "375": "Ġplay",
  "376": "Ġthey",
  "377": "el",
  "378": "Ġmom",
  "379": "Ġfor",
  "380": "Ġwe",
  "381": "ould",
  "382": "un",
  "383": "ĠB",
  "384": "The",
  "385": "'s",
  "386": "Ġhapp",
  "387": "ent",
  "388": "ch",
  "389": "e,",
  "390": "itt",
  "391": "Ġli",
  "392": "Ġwant",
  "393": "out",
  "394": "Ġsh",
  "395": "her",
  "396": "my",
  "397": "Ġvery",
  "398": "ound",
  "399": "ittle",
  "400": "Ġtim",
  "401": "all",
  "402": "ĠLily",
  "403": "Ġdo",
  "404": "end",
  "405": "Ġwh",
  "406": "Ġnot",
  "407": "Ġlittle",
  "408": "Ġthere",
  "409": "Ġk",
  "410": "al",
  "411": "ht",
  "412": "Ġne",
  "413": "Ġre",
  "414": "Ġbig",
  "415": "ĠM",
  "416": "Ġsm",
  "417": "Ġbut",
  "418": "Ġsaid,",
  "419": "ĠIt",
  "420": "ack",
  "421": "ly",
  "422": "Ġsaw",
  "423": "Ġan",
  "424": "Ġday,",
  "425": "riend",
  "426": "Ġfriend",
  "427": "Ġis",
  "428": "ra",
  "429": "Ġas",
  "430": "Ġsom",
  "431": "ed.",
  "432": "One",
  "433": "'t",
  "434": "Once",
  "435": "ug",
  "436": "ter",
  "437": "ec",
  "438": "Ġloo",
  "439": "Ġwere",
  "440": "ore",
  "441": "ved",
  "442": "Ġlo",
  "443": "!\"",
  "444": "ake",
  "445": "Ġhim",
  "446": "Ġbo",
  "447": "se",
  "448": "Ġtoo",
  "449": "Ġgo",
  "450": "irl",
  "451": "ĠTim",
  "452": "Ġse",
  "453": "Ġupon",
  "454": "Ġgirl",
  "455": "ill",
  "456": "Ġj",
  "457": "ard",
  "458": "Ġwanted",
  "459": "Ġhappy",
  "460": "Ġout",
  "461": "ic",
  "462": "Ġsp",
  "463": "way",
  "464": "Ġthem",
  "465": "fu",
  "466": "ur",
  "467": "Ġat",
  "468": "Ġcould",
  "469": "ind",
  "470": "Ġare",
  "471": "hen",
  "472": "ĠA",
  "473": "Ġdid",
  "474": "Ġtheir",
  "475": "Ġsmil",
  "476": "ry",
  "477": "ain",
  "478": "Ġex",
  "479": "hed",
  "480": "art",
  "481": "Ġwent",
  "482": "Ġar",
  "483": "rom",
  "484": "Ġtime,",
  "485": "Ġhave",
  "486": "ide",
  "487": ".\"",
  "488": "ĠJ",
  "489": "hing",
  "490": "ful",
  "491": "Ġall",
  "492": "lp",
  "493": "Ġnam",
  "494": "ight",
  "495": "Ġkn",
  "496": "Ġcan",
  "497": "ood",
  "498": "Ġhelp",
  "499": "n't",
  "500": "um",
  "501": "s,",
  "502": "ark",
  "503": "Ġback",
  "504": "Ġca",
  "505": "ĠBen",
  "506": "?\"",
  "507": "Ġcl",
  "508": "Ġfun",
  "509": "Ġle",
  "510": "Ġno",
  "511": "Ġnamed",
  "512": "Ġsay",
  "513": "ĠTom",
  "514": "Ġsc",
  "515": "oug",
  "516": "op",
  "517": "Ġal",
  "518": "You",
  "519": "elt",
  "520": "Ġloved",
  "521": "ĠOne",
  "522": "ick",
  "523": "Ġfelt",
  "524": "Ġman",
  "525": "Ġaround",
  "526": "Ġasked",
  "527": "Ġfe",
  "528": "Ġit.",
  "529": "Ġlooked",
  "530": "ure",
  "531": "Ġro",
  "532": "Ġwould",
  "533": "Ġlike",
  "534": "Ġbr",
  "535": "as",
  "536": "get",
  "537": "Ġsome",
  "538": "Ġbir",
  "539": "ĠW",
  "540": "Ġstart",
  "541": "Ġsee",
  "542": "ong",
  "543": "Ġsomet",
  "544": "Ġbird",
  "545": "Ġtoy",
  "546": "ame",
  "547": "one",
  "548": "Ġwor",
  "549": "Ġag",
  "550": "Ġmad",
  "551": "dd",
  "552": "king",
  "553": "Ġboy",
  "554": "Ġfa",
  "555": "Ġwhat",
  "556": "Ġtre",
  "557": "â€",
  "558": "gether",
  "559": "Ġaway",
  "560": "own",
  "561": "Ġmake",
  "562": "ĠBut",
  "563": "Ġstarted",
  "564": "Ġran",
  "565": "ĠTimmy",
  "566": "oud",
  "567": "Ġsomething",
  "568": "Ġsmiled",
  "569": "es.",
  "570": "Ġmade",
  "571": "Ġthing",
  "572": "if",
  "573": "Ġtogether",
  "574": "ag",
  "575": "Ġme",
  "576": "Ġco",
  "577": "Ġcar",
  "578": "Ġpark",
  "579": "ther",
  "580": "Ġexc",
  "581": "ĠYou",
  "582": "Ġla",
  "583": "Ġtime",
  "584": "Ġsad",
  "585": "Ġother",
  "586": "Ġfrom",
  "587": "Ġput",
  "588": "Ġhom",
  "589": "Ġnew",
  "590": "ble",
  "591": "Ġpr",
  "592": "Ġexcit",
  "593": "Ġ\"I",
  "594": "Ġagain",
  "595": "Ġmu",
  "596": "Ġscar",
  "597": "Ġwhen",
  "598": "ous",
  "599": "Ġhug",
  "600": "Ġfl",
  "601": "ell",
  "602": "Ġthen",
  "603": "Ġdec",
  "604": "Ġwho",
  "605": "est",
  "606": "ep",
  "607": "Ġfound",
  "608": "ach",
  "609": "ie",
  "610": "Ġch",
  "611": "Ġgood",
  "612": "ook",
  "613": "Ġsaid.",
  "614": "er.",
  "615": "ĠE",
  "616": "ice",
  "617": "ing.",
  "618": "Ġcom",
  "619": "Ġwal",
  "620": "qu",
  "621": "Ġget",
  "622": "ought",
  "623": "pl",
  "624": "pped",
  "625": "ĠLil",
  "626": "Ġsw",
  "627": "ally",
  "628": "hat",
  "629": "Ġgot",
  "630": "Ġdecid",
  "631": ",\"",
  "632": "Ġdecided",
  "633": "uck",
  "634": "Ġevery",
  "635": "side",
  "636": "Ġliked",
  "637": "ro",
  "638": "Ġplaying",
  "639": "Ġfriends",
  "640": "nn",
  "641": "ried",
  "642": "Ġbl",
  "643": "ax",
  "644": "Ġcame",
  "645": "Ġdown",
  "646": "ĠL",
  "647": "Ġbec",
  "648": "ust",
  "649": "Ġv",
  "650": "Ġhappy.",
  "651": "Ġfind",
  "652": "Ġthan",
  "653": "Ġcare",
  "654": "Ġfeel",
  "655": "Ġyour",
  "656": "ĠD",
  "657": "ara",
  "658": "udd",
  "659": "ist",
  "660": "Ġdog",
  "661": "Ġab",
  "662": "Ġdad",
  "663": "Ġke",
  "664": "ed,",
  "665": "ways",
  "666": "ĠMom",
  "667": "Ġgra",
  "668": "Ġgr",
  "669": "Ġalways",
  "670": "arn",
  "671": "ĠLily.",
  "672": "ave",
  "673": "Ġta",
  "674": "Ġtook",
  "675": "Ġdidn't",
  "676": "our",
  "677": "ĠF",
  "678": "Ġlot",
  "679": "Ġkne",
  "680": "ant",
  "681": "Ġabout",
  "682": "us",
  "683": "ac",
  "684": "eci",
  "685": "Ġpo",
  "686": "They",
  "687": "Ġmy",
  "688": "Ġlook",
  "689": "bb",
  "690": "nna",
  "691": "nder",
  "692": "Ġwill",
  "693": "ss",
  "694": "Ġthought",
  "695": "Ġball",
  "696": "ĠSam",
  "697": "Ġint",
  "698": "ecial",
  "699": "Ġspecial",
  "700": "are",
  "701": "Ġold",
  "702": "Ġmore",
  "703": "Ġlearn",
  "704": "Ġone",
  "705": "ry.",
  "706": "es,",
  "707": "Ġknow",
  "708": "Ġfriends.",
  "709": "ret",
  "710": "ap",
  "711": "Ġho",
  "712": "Ġknew",
  "713": "ny",
  "714": "Ġtake",
  "715": "Ġlaug",
  "716": "Ġmommy",
  "717": "on't",
  "718": "udden",
  "719": "Ġexcited",
  "720": "o,",
  "721": "Ġpe",
  "722": "fter",
  "723": "ĠMax",
  "724": "Ġcat",
  "725": "ly,",
  "726": "Ġany",
  "727": "Ġhow",
  "728": "ged",
  "729": "ma",
  "730": "Ġtr",
  "731": "Ġsor",
  "732": "Ġmuch",
  "733": "Ġshow",
  "734": "Ġ\"W",
  "735": "ide.",
  "736": "ia",
  "737": "Ġtw",
  "738": "ish",
  "739": "ven",
  "740": "au",
  "741": "et's",
  "742": "pen",
  "743": "Ġsl",
  "744": "ue",
  "745": "But",
  "746": "ink",
  "747": "os",
  "748": "Ġsk",
  "749": "nd.",
  "750": "Ġrun",
  "751": "ak",
  "752": "Ġagain.",
  "753": "Ġinto",
  "754": "Ġsun",
  "755": "ĠEvery",
  "756": "Ġon,",
  "757": "Ġthings",
  "758": "Ġmo",
  "759": "Ġtried",
  "760": "ess",
  "761": "Ġtold",
  "762": "Ġhim.",
  "763": "Ġproud",
  "764": "Ġen",
  "765": "uc",
  "766": "Ġqu",
  "767": "Ġnever",
  "768": "Ġgave",
  "769": "Ġwater",
  "770": "ive",
  "771": "y,",
  "772": "ite",
  "773": "Ġor",
  "774": "Ġover",
  "775": "ump",
  "776": "Ġif",
  "777": "Ġopen",
  "778": "Ġexpl",
  "779": "Ġ\"T",
  "780": "Ġcouldn't",
  "781": "Ġheard",
  "782": "ank",
  "783": "Ġeat",
  "784": "other",
  "785": "ause",
  "786": "ion",
  "787": "Ġroom",
  "788": "Ġthem.",
  "789": "Ġthis",
  "790": "etter",
  "791": "Ġpick",
  "792": "reat",
  "793": "fe",
  "794": "Ġher.",
  "795": "ear",
  "796": "Ġeach",
  "797": "Ġstr",
  "798": "here",
  "799": "Ġbecause",
  "800": "ĠSara",
  "801": "Ġpret",
  "802": "Ġjust",
  "803": "Ġwat",
  "804": "ĠWe",
  "805": "Ġplayed",
  "806": "uddenly,",
  "807": "ower",
  "808": "oth",
  "809": "Ġoff",
  "810": "Ġbox",
  "811": "ang",
  "812": "pt",
  "813": "iz",
  "814": "ob",
  "815": "em",
  "816": "Ġsmall",
  "817": "Ġlong",
  "818": "Ġhugged",
  "819": "ĠAnna",
  "820": "Tom",
  "821": "en.",
  "822": "Ġbu",
  "823": "Mom",
  "824": "Ġunt",
  "825": "Ġsays.",
  "826": "ough",
  "827": "Ġaway.",
  "828": "ort",
  "829": "Ġfo",
  "830": "Ġbear",
  "831": "Ġmany",
  "832": "et.",
  "833": "Ġuntil",
  "834": "Ġneed",
  "835": "Ġpark.",
  "836": "ĠJack",
  "837": "imal",
  "838": "Ġanimal",
  "839": "Ġoutside",
  "840": "ild",
  "841": "elf",
  "842": "Ġsn",
  "843": "Ġhand",
  "844": "'m",
  "845": "ving",
  "846": "ore.",
  "847": "by",
  "848": "Ġbetter",
  "849": "ily",
  "850": "Ġlearned",
  "851": "Ġim",
  "852": "Ġtogether.",
  "853": "ber",
  "854": "Ġcall",
  "855": "urt",
  "856": "Ġkind",
  "857": "my.",
  "858": "Ġad",
  "859": "ft",
  "860": "vent",
  "861": "Ġtry",
  "862": "Ġfun.",
  "863": "Ġdre",
  "864": "He",
  "865": "urn",
  "866": "ull",
  "867": "Ġcle",
  "868": "Ġbest",
  "869": "aut",
  "870": "ĠJo",
  "871": "Ġthanked",
  "872": "Ġnois",
  "873": "Ġeven",
  "874": "dy",
  "875": "urp",
  "876": "Ġbeaut",
  "877": "Ġbra",
  "878": "Ġclos",
  "879": "Ġgard",
  "880": "a.",
  "881": "Ġra",
  "882": "le.",
  "883": "ĠAnd",
  "884": "Ġfast",
  "885": "side.",
  "886": "ouse",
  "887": "Ġscared",
  "888": "ĠHer",
  "889": "Ġcareful",
  "890": "Ġlaughed",
  "891": "Ġfi",
  "892": "self",
  "893": "Ġlots",
  "894": "Ġtoo.",
  "895": "Ġshin",
  "896": "Ġlove",
  "897": "Ġche",
  "898": "lew",
  "899": "ĠMia",
  "900": "Ġjump",
  "901": "Ġfam",
  "902": "Ġloud",
  "903": "ched",
  "904": "Ġbeauti",
  "905": "Ġhome.",
  "906": "Ġbeautiful",
  "907": "wn",
  "908": "Ġgl",
  "909": "ĠC",
  "910": "ect",
  "911": "Ġstill",
  "912": "ĠThen",
  "913": "Ġhard",
  "914": "â€œ",
  "915": "Ġfin",
  "916": "ĠFrom",
  "917": "and",
  "918": "Ġdon't",
  "919": "h.",
  "920": "Ġwait",
  "921": "Ġwo",
  "922": "Ġlist",
  "923": "Ġjo",
  "924": "Ġtoys",
  "925": "Ġsorry",
  "926": "Ġflower",
  "927": "Ġstay",
  "928": "ĠHis",
  "929": "Ġday.",
  "930": "ve.",
  "931": "Ġnice",
  "932": "Ġhurt",
  "933": "Ġcome",
  "934": "Ġunder",
  "935": "Ġrem",
  "936": "oon",
  "937": "Ġcol",
  "938": "Ġhome",
  "939": "Ġtree",
  "940": "Ġmom.",
  "941": "ris",
  "942": "Ġboth",
  "943": "Ġby",
  "944": "Ġus",
  "945": "Ġcu",
  "946": "Ġang",
  "947": "ool",
  "948": "Ġlived",
  "949": "ock",
  "950": "ate",
  "951": "Ġimp",
  "952": "Ġits",
  "953": "Ġread",
  "954": "Ġflew",
  "955": "Ġbad",
  "956": "ished",
  "957": "Yes,",
  "958": "When",
  "959": "Ġtwo",
  "960": "Ġkept",
  "961": "urpris",
  "962": "Ġhous",
  "963": "Ġpeop",
  "964": "Ġwalked",
  "965": "Ġsad.",
  "966": "Ġstor",
  "967": "Ġte",
  "968": "Ġsurpris",
  "969": "lly",
  "970": "Ġbook",
  "971": "ĠWhen",
  "972": "ct",
  "973": "orn",
  "974": "hank",
  "975": "Ġsoon",
  "976": "ing,",
  "977": "ty",
  "978": "hn",
  "979": "kay",
  "980": "Ġcalled",
  "981": "Ġfore",
  "982": "xt",
  "983": "Ġshould",
  "984": "Ġâ€œ",
  "985": "Ġrock",
  "986": "Tim",
  "987": "Ġpic",
  "988": "Ġthre",
  "989": "Ġcon",
  "990": "Ġhig",
  "991": "Ġshare",
  "992": "Ġclean",
  "993": "Ġsays,",
  "994": "ĠP",
  "995": "Ġadvent",
  "996": "Ġkeep",
  "997": "Ġnow",
  "998": "ip",
  "999": "Ġbef",
  "1000": "Ġdoor",
  "1001": "Ġdoll",
  "1002": "Ġwind",
  "1003": "Ġfeeling",
  "1004": "Ġsto",
  "1005": "Ġground",
  "1006": "Ġreal",
  "1007": "Ġred",
  "1008": "Ġdra",
  "1009": "Ġide",
  "1010": "Ġopened",
  "1011": "be",
  "1012": "ile",
  "1013": "ace",
  "1014": "Ġfar",
  "1015": "Ġfr",
  "1016": "Ġturn",
  "1017": "Ġlisten",
  "1018": "ly.",
  "1019": "Ġyou,",
  "1020": "Ġey",
  "1021": "anc",
  "1022": "Ġ\"You",
  "1023": "Ġwar",
  "1024": "k.",
  "1025": "Ġinside",
  "1026": "Ġpeople",
  "1027": "Ġcolor",
  "1028": "thing",
  "1029": "Ġun",
  "1030": "ĠLily's",
  "1031": "Ġper",
  "1032": "Ġfly",
  "1033": "Ġnext",
  "1034": "ves",
  "1035": "Ġgoing",
  "1036": "Ġwalking",
  "1037": "Ġ\"L",
  "1038": "Ġpicked",
  "1039": "ĠLuc",
  "1040": "led",
  "1041": "so",
  "1042": "â€™",
  "1043": "imb",
  "1044": "Ben",
  "1045": "Ġthr",
  "1046": "oy",
  "1047": "Ġadventure",
  "1048": "Ġclimb",
  "1049": "Ġalso",
  "1050": "ice.",
  "1051": "Ġit,",
  "1052": "uch",
  "1053": "Ġway",
  "1054": "one.",
  "1055": "ture",
  "1056": "ight.",
  "1057": "ff",
  "1058": "iced",
  "1059": "Ġma",
  "1060": "ane",
  "1061": "st.",
  "1062": "Ġtree.",
  "1063": "Ġbeing",
  "1064": "\"W",
  "1065": "Ġit's",
  "1066": "Ġsmiled.",
  "1067": "ember",
  "1068": "Ġhappen",
  "1069": "Ġwr",
  "1070": "Ġnodd",
  "1071": "Ġbrave",
  "1072": "Ġlooking",
  "1073": "joy",
  "1074": "Ġdel",
  "1075": "Ġscared.",
  "1076": "Ġdif",
  "1077": "Ġpicture",
  "1078": "ow,",
  "1079": "Ġfood",
  "1080": "Ġgive",
  "1081": "ĠDad",
  "1082": "Ġhas",
  "1083": "ream",
  "1084": "ummy",
  "1085": "Ġtruck",
  "1086": "ĠG",
  "1087": "Ġremember",
  "1088": "th",
  "1089": "ught",
  "1090": "Ġever",
  "1091": "Ġthings.",
  "1092": "Ġown",
  "1093": "Ġquick",
  "1094": "Ġafter",
  "1095": "Ġgreat",
  "1096": "maz",
  "1097": "Ġnoticed",
  "1098": "Ġamaz",
  "1099": "ase",
  "1100": "ĠN",
  "1101": "ow.",
  "1102": "Ġrepl",
  "1103": "his",
  "1104": "Ġthink",
  "1105": "Ġtow",
  "1106": "Ġrain",
  "1107": "Ġenjoy",
  "1108": "iss",
  "1109": "Ġyou.",
  "1110": "Ġdis",
  "1111": "Ġshiny",
  "1112": "ting",
  "1113": "Ġvo",
  "1114": "Ġbro",
  "1115": "Ġfish",
  "1116": "Ġapp",
  "1117": "Ġhouse",
  "1118": "Ġhouse.",
  "1119": "\"I",
  "1120": "ĠSp",
  "1121": "eet",
  "1122": "Ġimport",
  "1123": "bbit",
  "1124": "aybe",
  "1125": "gan",
  "1126": "Ġshowed",
  "1127": "Ġnear",
  "1128": "She",
  "1129": "kes",
  "1130": "Ġwonder",
  "1131": "Ġstrong",
  "1132": "Ġac",
  "1133": "able",
  "1134": "Ġbig,",
  "1135": "Ġimportant",
  "1136": "Ġstopped",
  "1137": "Ġexplore",
  "1138": "Ġwatch",
  "1139": "ine",
  "1140": "ng",
  "1141": "Ġshout",
  "1142": "Ġrabbit",
  "1143": "Ġhead",
  "1144": "ized",
  "1145": "llow",
  "1146": "Ġgre",
  "1147": "Ġwatched",
  "1148": "Ġroom.",
  "1149": "bbed",
  "1150": "Ġ\"It",
  "1151": "No,",
  "1152": "Ġrepli",
  "1153": "Ġsound",
  "1154": "Ġfamily",
  "1155": "fere",
  "1156": "Ġtal",
  "1157": "day",
  "1158": "Ġmean",
  "1159": "Ġdiffere",
  "1160": "Ġsqu",
  "1161": "ted",
  "1162": "Ġthen,",
  "1163": "Ġsure",
  "1164": "Ġpretty",
  "1165": "ies",
  "1166": "Ġyear",
  "1167": "hat's",
  "1168": "Suddenly,",
  "1169": "ĠSuddenly,",
  "1170": "Ġboat",
  "1171": "Ġbit",
  "1172": "Ġlad",
  "1173": "on.",
  "1174": "Ġwhere",
  "1175": "Ġanimals",
  "1176": "Ġup.",
  "1177": "e.\"",
  "1178": "Ġ\"Yes,",
  "1179": "Ġstick",
  "1180": "ĠBob",
  "1181": "Ġokay",
  "1182": "Ġtra",
  "1183": "Ġgoodby",
  "1184": "Ġde",
  "1185": "Ġbecame",
  "1186": "Ġfollow",
  "1187": "Ġbright",
  "1188": "Ġbeen",
  "1189": "Ġchild",
  "1190": "illy",
  "1191": "ĠLucy",
  "1192": "Ġlea",
  "1193": "Ġsaf",
  "1194": "Ġend.",
  "1195": "Ġyell",
  "1196": "ome",
  "1197": "Ġmag",
  "1198": "Ġtoys.",
  "1199": "Ġdifferent",
  "1200": "Ġwarm",
  "1201": "Ġkit",
  "1202": "hes",
  "1203": "Ġcuri",
  "1204": "Ġuse",
  "1205": "Ġask",
  "1206": "ung",
  "1207": "er,",
  "1208": "co",
  "1209": "ĠI'm",
  "1210": "ached",
  "1211": "Ġblue",
  "1212": "Ġforg",
  "1213": "ious",
  "1214": "\"L",
  "1215": "ge",
  "1216": "Ġ\"O",
  "1217": "ĠR",
  "1218": "Ġcr",
  "1219": "Ġhop",
  "1220": "Ġbel",
  "1221": "Ġour",
  "1222": "ĠSpot",
  "1223": "leep",
  "1224": "Ġtell",
  "1225": "ous.",
  "1226": "ount",
  "1227": "ĠTimmy.",
  "1228": "Ġeveryone",
  "1229": "Ġfir",
  "1230": "Ġ\"D",
  "1231": "Ġasked.",
  "1232": "Jo",
  "1233": "Ġquickly",
  "1234": "Ġinside.",
  "1235": "Ġanym",
  "1236": "Ġcook",
  "1237": "Ġend",
  "1238": "Ġpu",
  "1239": "ndma",
  "1240": "Ġhelp.",
  "1241": "Ġwalk",
  "1242": "Ġbre",
  "1243": "Ġplay.",
  "1244": "Ġfav",
  "1245": "Ġsky.",
  "1246": "Ġgrabbed",
  "1247": "Ġdoes",
  "1248": "Ġpa",
  "1249": "Anna",
  "1250": "Ġba",
  "1251": "Sara",
  "1252": "Ġgarden",
  "1253": "Ġbutter",
  "1254": "Ġcont",
  "1255": "Her",
  "1256": "ke.",
  "1257": "Ġz",
  "1258": "Ġam",
  "1259": "Ġshar",
  "1260": "Ġpain",
  "1261": "Ġfriend.",
  "1262": "Ġlet",
  "1263": "ss.",
  "1264": "Ġgarden.",
  "1265": "ch.",
  "1266": "Ġpull",
  "1267": "Ġback.",
  "1268": "ce.",
  "1269": "Ġbefore",
  "1270": "Ġidea.",
  "1271": "ĠEveryone",
  "1272": "Ġkid",
  "1273": "Ġfell",
  "1274": "Ġhelped",
  "1275": "After",
  "1276": "Ġhome,",
  "1277": "ent.",
  "1278": "ning",
  "1279": "Ġmon",
  "1280": "Ġother.",
  "1281": "Ġonly",
  "1282": "chen",
  "1283": "Ġbrother",
  "1284": "Ġhere",
  "1285": "Ġreached",
  "1286": "Ġkitchen",
  "1287": "Ġsafe",
  "1288": "ass",
  "1289": "Ġglad",
  "1290": "Ġground.",
  "1291": "ry,",
  "1292": "Ġflo",
  "1293": "Ġthree",
  "1294": "Can",
  "1295": "Ġblock",
  "1296": "Ġrealized",
  "1297": "ally,",
  "1298": "Ġfire",
  "1299": "ĠAs",
  "1300": "ose",
  "1301": "Ġru",
  "1302": "Ġdr",
  "1303": "Ġstop",
  "1304": "Ġthrough",
  "1305": "Ġmum",
  "1306": "ĠSo",
  "1307": "Ġbus",
  "1308": "arent",
  "1309": "Ġwater.",
  "1310": "Ġtri",
  "1311": "Ġbeh",
  "1312": "Ġdo.",
  "1313": "Ġoutside.",
  "1314": "p.",
  "1315": "Ġhaving",
  "1316": "Ġhear",
  "1317": "Ġhigh",
  "1318": "Ġjumped",
  "1319": "Ġbun",
  "1320": "Ġpat",
  "1321": "Ġbegan",
  "1322": "where",
  "1323": "Ġsees",
  "1324": "Ġparent",
  "1325": "Ġ\"Thank",
  "1326": "Ġreally",
  "1327": "Ġbetter.",
  "1328": "Ġhimself",
  "1329": "Ġprin",
  "1330": "Ġsoft",
  "1331": "Ġdraw",
  "1332": "Ġtir",
  "1333": "Ġworld",
  "1334": "Ġexcited.",
  "1335": "Ġate",
  "1336": "ather",
  "1337": "ers",
  "1338": "Ġmagic",
  "1339": "Ġless",
  "1340": "Ġ\"Let's",
  "1341": "Ġright",
  "1342": "Ġunderst",
  "1343": "ĠMommy",
  "1344": "Ġple",
  "1345": "Ġfavor",
  "1346": "Ġsing",
  "1347": "Ġswing",
  "1348": "Ġsweet",
  "1349": "Ġfill",
  "1350": "Ġmaking",
  "1351": "Ġnight",
  "1352": "Ġstore",
  "1353": "uff",
  "1354": "'re",
  "1355": "Ġfix",
  "1356": "ange",
  "1357": "Ġhat",
  "1358": "Ġtime.",
  "1359": "Ġanymore.",
  "1360": "Ġused",
  "1361": "Ġcut",
  "1362": "Ġste",
  "1363": "ĠDo",
  "1364": "or.",
  "1365": "Ġbutterf",
  "1366": "ul",
  "1367": "Ġangry.",
  "1368": "Ġtast",
  "1369": "Ġsays",
  "1370": "Ġdelic",
  "1371": "romis",
  "1372": "Mommy",
  "1373": "\"O",
  "1374": "Ġstar",
  "1375": "Ġgoodbye",
  "1376": "Ġcar.",
  "1377": "Ġwaved",
  "1378": "Ġpart",
  "1379": "bo",
  "1380": "Ġcreat",
  "1381": "Ġfavorite",
  "1382": "Ġduck",
  "1383": "air",
  "1384": "Ġ\"We",
  "1385": "Ġpap",
  "1386": "ered",
  "1387": "Ġpromis",
  "1388": "ais",
  "1389": "ĠJohn",
  "1390": "Ġsky",
  "1391": "ign",
  "1392": "ĠBen.",
  "1393": "iver",
  "1394": "Ġpretend",
  "1395": "t.",
  "1396": "Ġswim",
  "1397": "app",
  "1398": "ĠSue",
  "1399": "les",
  "1400": "Ġanother",
  "1401": "rel",
  "1402": "As",
  "1403": "Ġ\"H",
  "1404": "Ġfull",
  "1405": "Ġtouch",
  "1406": "Ġgam",
  "1407": "ster",
  "1408": "Ġpus",
  "1409": "sh",
  "1410": "Ġmat",
  "1411": "Ġcool",
  "1412": "Ġworked",
  "1413": "Ġnodded",
  "1414": "Ġfarm",
  "1415": "Ġfro",
  "1416": "Ġcatch",
  "1417": "ard.",
  "1418": "ĠSo,",
  "1419": "ĠTom.",
  "1420": "ĠCan",
  "1421": "Ġgi",
  "1422": "ble.",
  "1423": "Ġhair",
  "1424": "Ġlooks",
  "1425": "Ġsorry.",
  "1426": "Ġcra",
  "1427": "age",
  "1428": "Ġdro",
  "1429": "Ġfirst",
  "1430": "Ġhopped",
  "1431": "Ġ\"I'm",
  "1432": "Ġspot",
  "1433": "Ġsmell",
  "1434": "Ġsand",
  "1435": "Ġdress",
  "1436": "Ġdin",
  "1437": "Ġbag",
  "1438": "Ġsho",
  "1439": "Ġthank",
  "1440": "Ġ-",
  "1441": "ook,",
  "1442": "Ġremembered",
  "1443": "Ġwhy",
  "1444": "ĠJane",
  "1445": "Ġstory",
  "1446": "ĠSarah",
  "1447": "Ġwood",
  "1448": "ide,",
  "1449": "Ġbehind",
  "1450": "Ġwork",
  "1451": "Ġdark",
  "1452": "Ġsleep",
  "1453": "uit",
  "1454": "Ġplace",
  "1455": "Ġbat",
  "1456": "John",
  "1457": "Ġcloser",
  "1458": "Ġdri",
  "1459": "Ġwear",
  "1460": "Ġsat",
  "1461": "Ġcarefu",
  "1462": "Ġperf",
  "1463": "Ġhold",
  "1464": "Ġaround.",
  "1465": "ĠIn",
  "1466": "Ġdown.",
  "1467": "\".",
  "1468": "So",
  "1469": "Ġyears",
  "1470": "Ġeyes",
  "1471": "Ġrest",
  "1472": "Sam",
  "1473": "se.",
  "1474": "Ġagre",
  "1475": "Ġfinished",
  "1476": "olly",
  "1477": "ren",
  "1478": "Ġwished",
  "1479": "Ġcan't",
  "1480": "ation",
  "1481": "Ġcold",
  "1482": "Ġtall",
  "1483": "Ġcry",
  "1484": "Ġbed",
  "1485": "ued",
  "1486": "Ġcoming",
  "1487": "Ġlady",
  "1488": "hy",
  "1489": "ĠLet's",
  "1490": "Timmy",
  "1491": "Ġreplied,",
  "1492": "Ġheld",
  "1493": "Ġplac",
  "1494": "Ġenjoyed",
  "1495": "Ġnoise",
  "1496": "Ġyou.\"",
  "1497": "Ġair",
  "1498": "ĠAfter",
  "1499": "Ġyummy",
  "1500": "ĠIt's",
  "1501": "Ġanything",
  "1502": "Ġbunny",
  "1503": "â€™s",
  "1504": "eddy",
  "1505": "Ġdream",
  "1506": "Ġball.",
  "1507": "ĠTimmy's",
  "1508": "Ġleft",
  "1509": "ily.",
  "1510": "Ġarri",
  "1511": "Ġseen",
  "1512": "Ġcri",
  "1513": "Ġgreen",
  "1514": "Ġpi",
  "1515": "ĠJoe",
  "1516": "Ġset",
  "1517": "Ġbuy",
  "1518": "Ġrel",
  "1519": "Ġherself",
  "1520": "Ġ\"No,",
  "1521": "Ġready",
  "1522": "akes",
  "1523": "Ġfair",
  "1524": "Ġfrog",
  "1525": "Ġlikes",
  "1526": "Ġwhile",
  "1527": "ance",
  "1528": "Ġwrong",
  "1529": "aught",
  "1530": "Ġhill",
  "1531": "Ġpre",
  "1532": "Ġchildren",
  "1533": "Ġdog.",
  "1534": "Ġfriend,",
  "1535": "Ġcontin",
  "1536": "Ġgirl.",
  "1537": "Ġhung",
  "1538": "ield",
  "1539": "Ġdanc",
  "1540": "Ġneeded",
  "1541": "Ġ\"What",
  "1542": "Ġhid",
  "1543": "Ġlet's",
  "1544": "Ġcake",
  "1545": "Ġforgot",
  "1546": "Ġhot",
  "1547": "Ġfollowed",
  "1548": "Ġable",
  "1549": "Ġcast",
  "1550": "Ġvoice",
  "1551": "Ġnoise.",
  "1552": "Ġsmile",
  "1553": "Ġbirds",
  "1554": "lf",
  "1555": "Ġdir",
  "1556": "ess.",
  "1557": "ient",
  "1558": "Ġbow",
  "1559": "Ġbuild",
  "1560": "Ġparents",
  "1561": "Ġice",
  "1562": "Ġwonderful",
  "1563": "Ġfunny",
  "1564": "Ġarm",
  "1565": "ary",
  "1566": "Ġfilled",
  "1567": "Ġname",
  "1568": "asure",
  "1569": "Ġwhil",
  "1570": "Ġbug",
  "1571": "Ġyellow",
  "1572": "inally,",
  "1573": "Ġhands",
  "1574": "Ġel",
  "1575": "Then",
  "1576": "Ġrunning",
  "1577": "aisy",
  "1578": "in.",
  "1579": "Ġbox.",
  "1580": "Ġ\"It's",
  "1581": "Ġ\"M",
  "1582": "ken",
  "1583": "imes",
  "1584": "Ġlight",
  "1585": "zy",
  "1586": "Ġmouse",
  "1587": "Ġforest",
  "1588": "ross",
  "1589": "Ġflowers",
  "1590": "Ġgent",
  "1591": "Ġslow",
  "1592": "Ġmight",
  "1593": "ĠEm",
  "1594": "Ġarrived",
  "1595": "!â€",
  "1596": "Jack",
  "1597": "irrel",
  "1598": "Ġangry",
  "1599": "av",
  "1600": "Ġsong",
  "1601": "Ġsorry,",
  "1602": "an.",
  "1603": "Ġcand",
  "1604": "Ġcontinued",
  "1605": "ĠThere",
  "1606": "Ġwall",
  "1607": "Ġenough",
  "1608": "From",
  "1609": "Ġstayed",
  "1610": "Ġmorn",
  "1611": "Ġsafe.",
  "1612": "ate.",
  "1613": "room",
  "1614": "ppy",
  "1615": "Ġasked,",
  "1616": "Ġ\"Don't",
  "1617": "Ġbird.",
  "1618": "Ġsquirrel",
  "1619": "Ġhappened.",
  "1620": "isit",
  "1621": "Ġcount",
  "1622": "Ġbigg",
  "1623": "\"T",
  "1624": "Ġ\"S",
  "1625": "Ġvisit",
  "1626": "Ġgetting",
  "1627": "ards",
  "1628": "Ġhappily",
  "1629": "Ġtop",
  "1630": "Ġcry.",
  "1631": "sp",
  "1632": "Ġlost",
  "1633": "Ġbreak",
  "1634": "Ġout.",
  "1635": "Ġpink",
  "1636": "Ġmom,",
  "1637": "Ġdoing",
  "1638": "Ġcomp",
  "1639": "Ġpoin",
  "1640": "com",
  "1641": "Ġperfect",
  "1642": "Ġmar",
  "1643": "'ll",
  "1644": "Ġcarefully",
  "1645": "Ġsmile.",
  "1646": "\"H",
  "1647": "Ġdad.",
  "1648": "At",
  "1649": "ĠThen,",
  "1650": "anger",
  "1651": "ful.",
  "1652": "Ġgrandma",
  "1653": "Ġwants",
  "1654": "Ġfew",
  "1655": "Ġju",
  "1656": "ies.",
  "1657": "Ġtoy.",
  "1658": "Ġsomeone",
  "1659": "Ġslide",
  "1660": "oom",
  "1661": "Ġlion",
  "1662": "Ġmother",
  "1663": "ine.",
  "1664": "Ġaway,",
  "1665": "Ġjoin",
  "1666": "s.\"",
  "1667": "Ġdinn",
  "1668": "Ġcurious",
  "1669": "rot",
  "1670": "Ġbeach",
  "1671": "Ġdelicious",
  "1672": "ty.",
  "1673": "ĠK",
  "1674": "Ġmus",
  "1675": "Ġface.",
  "1676": "Ġturned",
  "1677": "itten",
  "1678": "Ġcream",
  "1679": "Ġword",
  "1680": "Ġfinally",
  "1681": "Ġsail",
  "1682": "ĠThis",
  "1683": "Ġroll",
  "1684": "ĠThat",
  "1685": "Ġfur",
  "1686": "Ġbrought",
  "1687": "Ġfall",
  "1688": "wl",
  "1689": "ich",
  "1690": "ama",
  "1691": "Ġspl",
  "1692": "Ġclimbed",
  "1693": "Ġspark",
  "1694": "Ġballoon",
  "1695": "Ġclot",
  "1696": "Ġsear",
  "1697": "Ġfriends,",
  "1698": "Ġbaby",
  "1699": "al.",
  "1700": "Ġeverything",
  "1701": "Ġfre",
  "1702": "ike",
  "1703": "Ġwasn't",
  "1704": "ask",
  "1705": "ever",
  "1706": "His",
  "1707": "Ġforest.",
  "1708": "o.",
  "1709": "ue.",
  "1710": "ĠBenny",
  "1711": "uddenly",
  "1712": "Ġmet",
  "1713": "Ġboy.",
  "1714": "Ġmiss",
  "1715": "Ġdeep",
  "1716": "Ġtail",
  "1717": "Ġpol",
  "1718": "ĠMaybe",
  "1719": "Ġ\"Can",
  "1720": "oral",
  "1721": "red",
  "1722": "eter",
  "1723": "Ġmakes",
  "1724": "zz",
  "1725": "ĠGra",
  "1726": "ister",
  "1727": "Ġsit",
  "1728": "Ġunderstand",
  "1729": "side,",
  "1730": "ĠSally",
  "1731": "ugg",
  "1732": "ar.",
  "1733": "Ġwhile,",
  "1734": "Ġem",
  "1735": "Ġtreat",
  "1736": "ad.",
  "1737": "Ġmuch.",
  "1738": "Ġlistened",
  "1739": "Ġkids",
  "1740": "Ġnice.",
  "1741": "Ġtrying",
  "1742": "ott",
  "1743": "Ġmess",
  "1744": "ĠDaisy",
  "1745": "Ġwis",
  "1746": "Ġbefore.",
  "1747": "orm",
  "1748": "Ġbutterfly",
  "1749": "Ġpiec",
  "1750": "Ġmusic",
  "1751": "Ġwas.",
  "1752": "ater",
  "1753": "apped",
  "1754": "igh",
  "1755": "Ġclose",
  "1756": "cess",
  "1757": "Ġhole",
  "1758": "Ġsnow",
  "1759": "Ġwhite",
  "1760": "ash",
  "1761": "Ġamazing",
  "1762": "Ġit.\"",
  "1763": "gg",
  "1764": "Ġcloud",
  "1765": "ĠJen",
  "1766": "ĠLila",
  "1767": "Ġfriendly",
  "1768": "Ġhug.",
  "1769": "Ġfox",
  "1770": "Ġdoor.",
  "1771": "ĠWhat",
  "1772": "Ġfield",
  "1773": "Ġtowards",
  "1774": "Ġworry,",
  "1775": "Ġexplor",
  "1776": "Ġbor",
  "1777": "icy",
  "1778": "Ġsurprised",
  "1779": "igg",
  "1780": "Ġfamily.",
  "1781": "Ġbelie",
  "1782": "Ġdrag",
  "1783": "ĠO",
  "1784": "Ġsec",
  "1785": "ix",
  "1786": "med",
  "1787": "Ġanimals.",
  "1788": "Ġface",
  "1789": "ny.",
  "1790": "ĠAll",
  "1791": "Ġpromised",
  "1792": "Ġpulled",
  "1793": "Ġmone",
  "1794": "Ġteddy",
  "1795": "ĠTim.",
  "1796": "Ġpaper",
  "1797": "hes.",
  "1798": "Ġblank",
  "1799": "ie.",
  "1800": "Ġup,",
  "1801": "Ġgu",
  "1802": "Ġsuch",
  "1803": "immy",
  "1804": "Ġqui",
  "1805": "Ġmoral",
  "1806": "Ġ\"That's",
  "1807": "Ġsister",
  "1808": "Ġtreasure",
  "1809": "Ġpet",
  "1810": "ĠMax.",
  "1811": "Ġnap",
  "1812": "ĠTommy",
  "1813": "fort",
  "1814": "Ġthere.",
  "1815": "Ġshap",
  "1816": "Ġgrate",
  "1817": "Ġshared",
  "1818": "Ġplant",
  "1819": "\"Look,",
  "1820": "\"S",
  "1821": "Ġve",
  "1822": "Ġreach",
  "1823": "Ġadventure.",
  "1824": "ire",
  "1825": "Ġmust",
  "1826": "Ġgame",
  "1827": "sw",
  "1828": "Ġcars",
  "1829": "Ġdanger",
  "1830": "Ġhand.",
  "1831": "Ġriver",
  "1832": "ĠBilly",
  "1833": "Ġtired",
  "1834": "Ġansw",
  "1835": "ello,",
  "1836": "Ġexplain",
  "1837": "Ġspecial.",
  "1838": "Ġgif",
  "1839": "ol",
  "1840": "one,",
  "1841": "Ġjob",
  "1842": "Ġtalk",
  "1843": "Ġtight",
  "1844": "Ġliving",
  "1845": "per",
  "1846": "ings",
  "1847": "Ġbar",
  "1848": "Ġeverywhere",
  "1849": "Ġsnack",
  "1850": "Ġpark,",
  "1851": "Ġbott",
  "1852": "Ġele",
  "1853": "ins",
  "1854": "Ġmove",
  "1855": "Ġpro",
  "1856": "Ġpot",
  "1857": "Ġheav",
  "1858": "Ġruns",
  "1859": "ves.",
  "1860": "Ġidea",
  "1861": "Ġfight",
  "1862": "Ġwel",
  "1863": "Ġit?\"",
  "1864": "ĠFl",
  "1865": "Ġhands.",
  "1866": "ph",
  "1867": "Ġbroken",
  "1868": "Ġplan",
  "1869": "Ġmagical",
  "1870": "Ġbed.",
  "1871": "Ġwindow",
  "1872": "Ġje",
  "1873": "oup",
  "1874": "Max",
  "1875": "Ġgrow",
  "1876": "h,",
  "1877": "Ġmost",
  "1878": "ne",
  "1879": "Ġscared,",
  "1880": "Ġpen",
  "1881": "ely",
  "1882": "Ġslide.",
  "1883": "ast",
  "1884": "Ġstepped",
  "1885": "Ġpuppy",
  "1886": "Ġatt",
  "1887": "Ġmout",
  "1888": "Ġplease",
  "1889": "ĠLily,",
  "1890": "Ġblack",
  "1891": "Ġflying",
  "1892": "Ġpond",
  "1893": "Ġaround,",
  "1894": "Ġfloor.",
  "1895": "Ġcarrot",
  "1896": "Ġgrass.",
  "1897": "ez",
  "1898": "Ġsay,",
  "1899": "ĠTo",
  "1900": "ĠJill",
  "1901": "Ġhead.",
  "1902": "Ġthinks",
  "1903": "Ġstu",
  "1904": "rat",
  "1905": "ere",
  "1906": "me",
  "1907": "Ġmin",
  "1908": "amp",
  "1909": "cle",
  "1910": "Ġacross",
  "1911": "Ġsurprise",
  "1912": "ord",
  "1913": "Ġkitchen.",
  "1914": "Ġsmart",
  "1915": "Ġsometimes",
  "1916": "Ġscream",
  "1917": "Ġdisapp",
  "1918": "ined",
  "1919": "Ġride",
  "1920": "Ġspr",
  "1921": "Ġlaugh",
  "1922": "ctor",
  "1923": "Ġhelping",
  "1924": "\"Yes,",
  "1925": "Ġman.",
  "1926": "man",
  "1927": "alth",
  "1928": "key",
  "1929": "Ġpie",
  "1930": "Ġcareful.",
  "1931": "Ġmix",
  "1932": "Ġmoment",
  "1933": "ased",
  "1934": "Ġsign",
  "1935": "Ġlesson",
  "1936": "Ġbowl",
  "1937": "age.",
  "1938": "Ġfood.",
  "1939": "Ġleave",
  "1940": "Ġwaited",
  "1941": "Ġmore.",
  "1942": "Ġdone",
  "1943": "Ġcolorful",
  "1944": "uffy",
  "1945": "row",
  "1946": "ipped",
  "1947": "ucky",
  "1948": "Ġbelieve",
  "1949": "Ġcried",
  "1950": "Ġstre",
  "1951": "Ġteac",
  "1952": "Ġcoll",
  "1953": "Ġstuck",
  "1954": "ĠMom.",
  "1955": "Ġfruit",
  "1956": "Ġland",
  "1957": "e,\"",
  "1958": "Ġthrew",
  "1959": "ub",
  "1960": "Ġbutt",
  "1961": "Ġslowly",
  "1962": "Ġwouldn't",
  "1963": "Ġsad,",
  "1964": "Ġnodded.",
  "1965": "chool",
  "1966": "ward",
  "1967": "Ġnight,",
  "1968": "Ġhide",
  "1969": "Ġcup",
  "1970": "Ġtown",
  "1971": "der",
  "1972": "Ġfast.",
  "1973": "Ġstrange",
  "1974": "Ġbuck",
  "1975": "Ġgrass",
  "1976": "ĠMr",
  "1977": "Ġhigher",
  "1978": "Ġheart",
  "1979": "\"M",
  "1980": "â€™t",
  "1981": "Ġit!\"",
  "1982": "Ġwet",
  "1983": "Ġwork.",
  "1984": "Ġschool",
  "1985": "Ġit!",
  "1986": "cid",
  "1987": "Ġneigh",
  "1988": "Ġone.",
  "1989": "Ġ\"That",
  "1990": "ventu",
  "1991": "Ġapple",
  "1992": "ĠNow",
  "1993": "ĠAmy",
  "1994": "Ġneighb",
  "1995": "Ġpack",
  "1996": "Ġbear.",
  "1997": "Ġeyes.",
  "1998": "ĠSam.",
  "1999": "Ġpers",
  "2000": "Ġhim,",
  "2001": "Ġpass",
  "2002": "Ġteacher",
  "2003": "Ġhit",
  "2004": "Ġwithout",
  "2005": "Ġbask",
  "2006": "Ġswam",
  "2007": "vel",
  "2008": "Ġ\"This",
  "2009": "ract",
  "2010": "Ġaccid",
  "2011": "Ġpaint",
  "2012": "m.",
  "2013": "Ġcray",
  "2014": "Ġtoday",
  "2015": "Ġcolors",
  "2016": "Ġgo.",
  "2017": "Ġsmo",
  "2018": "ipp",
  "2019": "Ġdaddy",
  "2020": "ion.",
  "2021": "Ġthere,",
  "2022": "Ġpushed",
  "2023": "Ġfarmer",
  "2024": "Mommy,",
  "2025": "Ġdrove",
  "2026": "ours",
  "2027": "\"No,",
  "2028": "Ġtrees",
  "2029": "Ġfen",
  "2030": "Ġyoung",
  "2031": "Ġhoped",
  "2032": "oon,",
  "2033": "Ġclosed",
  "2034": "Ġtoo,",
  "2035": "ure,",
  "2036": "Ġpock",
  "2037": "Ġscary",
  "2038": "Ġwrong.",
  "2039": "Ġsame",
  "2040": "Ġear",
  "2041": "Ġwag",
  "2042": "Ġjour",
  "2043": "Mom,",
  "2044": "kay,",
  "2045": "Ġforget",
  "2046": "Ġgrateful",
  "2047": "Ġtrain",
  "2048": "Ġfeels",
  "2049": "Ġpast",
  "2050": "\"Let's",
  "2051": "Ġhappy!",
  "2052": "Ġbrown",
  "2053": "Ġpictures",
  "2054": "Ġcastle",
  "2055": "Ġchair",
  "2056": "Ġlon",
  "2057": "ĠMolly",
  "2058": "Ġblocks",
  "2059": "fus",
  "2060": "Ġstand",
  "2061": "Ġbrave.",
  "2062": "Ġalong",
  "2063": "Ġbigger",
  "2064": "Ġokay,",
  "2065": "Ġcorn",
  "2066": "Ġhappy,",
  "2067": "iny",
  "2068": "Ġsang",
  "2069": "Ġamazed",
  "2070": "Ġmonster",
  "2071": "Ġleg",
  "2072": "Ġbad.",
  "2073": "ste",
  "2074": "ver.",
  "2075": "Ġleaves",
  "2076": "Ġpond.",
  "2077": "Ġsecret",
  "2078": "Ġvoice.",
  "2079": "\"Wow,",
  "2080": "ming",
  "2081": "Ġflowers.",
  "2082": "Ġups",
  "2083": "Ġwelcom",
  "2084": "Ġagreed",
  "2085": "Ġtogether,",
  "2086": "ountain",
  "2087": "Ġowner",
  "2088": "Ġowl",
  "2089": "Ġshouted",
  "2090": "Ġwin",
  "2091": "ling",
  "2092": "Ġcheer",
  "2093": "read",
  "2094": "So,",
  "2095": "Ġlaughed.",
  "2096": "ĠDaddy",
  "2097": "ail",
  "2098": "?â€",
  "2099": "Ġtrou",
  "2100": "Ġexcited!",
  "2101": "Ġdragon",
  "2102": "ho",
  "2103": "Mia",
  "2104": "Ġhard.",
  "2105": "Ġbacky",
  "2106": "Ġaccident",
  "2107": "Ġtaking",
  "2108": "ĠEmma",
  "2109": "Ġdist",
  "2110": "Ġwith.",
  "2111": "Ġbring",
  "2112": "phant",
  "2113": "Ġme.",
  "2114": "Ġhor",
  "2115": "Ġbee",
  "2116": "Ġbroke",
  "2117": "Ġlun",
  "2118": "Ġlisten.",
  "2119": "oun",
  "2120": "Ġclapped",
  "2121": "Ġwhe",
  "2122": "Ġ\"But",
  "2123": "Ġdropped",
  "2124": "Ġmommy.",
  "2125": "Ġelephant",
  "2126": "Finally,",
  "2127": "Ġneck",
  "2128": "Ġbelong",
  "2129": "K,",
  "2130": "Ġnaught",
  "2131": "Ġseemed",
  "2132": "Ġthrow",
  "2133": "Ġshop",
  "2134": "ers.",
  "2135": "et,",
  "2136": "Ġcaught",
  "2137": "Ġrelie",
  "2138": "Ġgood.",
  "2139": "cked",
  "2140": "Ġcried.",
  "2141": "Ġsu",
  "2142": "itting",
  "2143": "Ġmail",
  "2144": "Ġlonger",
  "2145": "Ġes",
  "2146": "Ġshook",
  "2147": "Ġthough",
  "2148": "Ġway.",
  "2149": "at.",
  "2150": "Ġwoke",
  "2151": "Ġbooks",
  "2152": "Ġdes",
  "2153": "Ġwish",
  "2154": "Ġwell",
  "2155": "Ġ3",
  "2156": "ress",
  "2157": "Ġelse",
  "2158": "Ġdrink",
  "2159": "Ġcrayon",
  "2160": "Ġcurious.",
  "2161": "Ġph",
  "2162": "Ġsilly",
  "2163": "Ġin.",
  "2164": "Ġrac",
  "2165": "Ġben",
  "2166": "bble",
  "2167": "Ġrace",
  "2168": "Ġhimself.",
  "2169": "Ġdoctor",
  "2170": "\"Can",
  "2171": "Ġasks.",
  "2172": "Ġpig",
  "2173": "Ġmoved",
  "2174": "mor",
  "2175": "Ġpiece",
  "2176": "ive.",
  "2177": "Lila",
  "2178": "Ġplace.",
  "2179": "dy.",
  "2180": "Ġmonkey",
  "2181": "Ġtiny",
  "2182": "Ġinv",
  "2183": "Ġcou",
  "2184": "Ġtable.",
  "2185": "Ġagain,",
  "2186": "Ġdance",
  "2187": "Ġ\"The",
  "2188": "Ġrainb",
  "2189": "Ġcookies",
  "2190": "Ġworld.",
  "2191": "Ġpurp",
  "2192": "Ġcho",
  "2193": "It",
  "2194": "ake.",
  "2195": "Ġeating",
  "2196": "Ġlong.",
  "2197": "Ġkiss",
  "2198": "Ġtoys,",
  "2199": "col",
  "2200": "ĠGrandma",
  "2201": "ge.",
  "2202": "Ġlesson.",
  "2203": "Ġfairy",
  "2204": "Ġob",
  "2205": "Ġ\"N",
  "2206": "izz",
  "2207": "Ġexplore.",
  "2208": "f.",
  "2209": "ĠBen,",
  "2210": "Ġbran",
  "2211": "Ġyou!\"",
  "2212": "Ġside",
  "2213": "ĠAnna.",
  "2214": "Ġher,",
  "2215": "to",
  "2216": "Ġaf",
  "2217": "Ġon.",
  "2218": "Ġtouc",
  "2219": "Ġgame.",
  "2220": "Ġbutton",
  "2221": "Ġnest",
  "2222": "ope",
  "2223": "Ġme?\"",
  "2224": "And",
  "2225": "Ġmark",
  "2226": "Ġmess.",
  "2227": "Ġsick",
  "2228": "Ġround",
  "2229": "umb",
  "2230": "Ġhurt.",
  "2231": "Ġnod",
  "2232": "Ġdaught",
  "2233": "Ġfit",
  "2234": "Ġhugs",
  "2235": "Ġgentle",
  "2236": "Ġgone.",
  "2237": "Ġwhist",
  "2238": "Ġblanket",
  "2239": "umber",
  "2240": "Ġresp",
  "2241": "Ġboun",
  "2242": "Ġsun.",
  "2243": "Ġprincess",
  "2244": "Ġnothing",
  "2245": "Ġeat.",
  "2246": "Ġtable",
  "2247": "Ġappear",
  "2248": "Ġcir",
  "2249": "ĠThank",
  "2250": "Ġ\"Why",
  "2251": "Ġsunsh",
  "2252": "Ġret",
  "2253": "raid",
  "2254": "vered",
  "2255": "Ġsmiled,",
  "2256": "Ġfun!",
  "2257": "Ġafraid",
  "2258": "Then,",
  "2259": "Ġpower",
  "2260": "Ġmil",
  "2261": "Ġjourne",
  "2262": "Ġletter",
  "2263": "Ġwise",
  "2264": "weet",
  "2265": "og",
  "2266": "thday",
  "2267": "Ġtouched",
  "2268": "Ġhuge",
  "2269": "Ġbath",
  "2270": "Ġpretty.",
  "2271": "Ġhell",
  "2272": "Ġreturn",
  "2273": "Ġknock",
  "2274": "Ġegg",
  "2275": "Ġonto",
  "2276": "Ġdisco",
  "2277": "Ġaccidentally",
  "2278": "Ġtakes",
  "2279": "erest",
  "2280": "Ġsitting",
  "2281": "omet",
  "2282": "Ġinterest",
  "2283": "Ġcake.",
  "2284": "Ġmorning,",
  "2285": "Ġlaughing",
  "2286": "Ġadd",
  "2287": "bby",
  "2288": "Ġlake",
  "2289": "Ġwondered",
  "2290": "Ġant",
  "2291": "Ġinc",
  "2292": "Ġcat.",
  "2293": "Ġthat's",
  "2294": "Ġclothes",
  "2295": "Ġlift",
  "2296": "Ġcollect",
  "2297": "Ġcarry",
  "2298": "Ġturns",
  "2299": "Ġbike",
  "2300": "Ġcreature",
  "2301": "Ġ\"G",
  "2302": "ved.",
  "2303": "Ġcam",
  "2304": "Ġcomfort",
  "2305": "Ġgigg",
  "2306": "Ġeas",
  "2307": "br",
  "2308": "y.\"",
  "2309": "Ġholding",
  "2310": "Ġpieces",
  "2311": "\"What",
  "2312": "Ġsuddenly",
  "2313": "Ġshell",
  "2314": "Ġtired.",
  "2315": "Ġsoon.",
  "2316": "Ġinste",
  "2317": "Ġtruck.",
  "2318": "Ġfloor",
  "2319": "let",
  "2320": "Ġact",
  "2321": "Ġpurple",
  "2322": "ins.",
  "2323": "ower.",
  "2324": "ush",
  "2325": "Ġquiet",
  "2326": "ek",
  "2327": "Ġwra",
  "2328": "ĠFinally,",
  "2329": "Ġproud.",
  "2330": "Ġfing",
  "2331": "la",
  "2332": "ĠI'll",
  "2333": "Ġbirthday",
  "2334": "Ġce",
  "2335": "Ġhealth",
  "2336": "ĠMary",
  "2337": "ĠJack.",
  "2338": "Ġexplained",
  "2339": "Ġimag",
  "2340": "s,\"",
  "2341": "Ġsearched",
  "2342": "Ġmist",
  "2343": "Ġgrab",
  "2344": "Ġhouse,",
  "2345": "Ġhar",
  "2346": "Ġdi",
  "2347": "Ġspoon",
  "2348": "Ġwon't",
  "2349": "Ġgather",
  "2350": "Ġbought",
  "2351": "Ġpointed",
  "2352": "Ġsunny",
  "2353": "round",
  "2354": "Ġsplas",
  "2355": "Ġsaid:",
  "2356": "Ġspo",
  "2357": "\"Thank",
  "2358": "Ġpres",
  "2359": "Ġchees",
  "2360": "Ġsandw",
  "2361": "Ġpudd",
  "2362": "Lily,",
  "2363": "unt",
  "2364": "Ġkick",
  "2365": "Ġmoney",
  "2366": "ay.",
  "2367": "Ġbasket",
  "2368": "Lily's",
  "2369": "Ġpeace",
  "2370": "Ġcheered",
  "2371": "Ġdinner.",
  "2372": "ball",
  "2373": "Ġwom",
  "2374": "lease",
  "2375": "Ġwoods.",
  "2376": "Ġstore.",
  "2377": "Ġtalked",
  "2378": "Ġproble",
  "2379": "Bob",
  "2380": "Ġent",
  "2381": "Ġorange",
  "2382": "Ġalone.",
  "2383": "Ġstrong.",
  "2384": "Ġkind.",
  "2385": "Ġjar",
  "2386": "less",
  "2387": "Ġothers",
  "2388": "Ġbreat",
  "2389": "Ġokay.",
  "2390": "de",
  "2391": "ised",
  "2392": "Ġsuc",
  "2393": "Ġadm",
  "2394": "Ġdoll.",
  "2395": "Ġplaying.",
  "2396": "Ġzoom",
  "2397": "Ġblocks.",
  "2398": "el.",
  "2399": "\"It",
  "2400": "Ġspid",
  "2401": "Ġherself.",
  "2402": "Ġbite",
  "2403": "aur",
  "2404": "ĠLe",
  "2405": "Ġfaster",
  "2406": "Ġworried",
  "2407": "Ġcomes",
  "2408": "Ġband",
  "2409": "Ġgives",
  "2410": "Ġheavy",
  "2411": "Ġhappened",
  "2412": "les.",
  "2413": "ible",
  "2414": "ĠMama",
  "2415": "Ġsound.",
  "2416": "\"I'm",
  "2417": "Ġair.",
  "2418": "Ġsmiles",
  "2419": "Ġ\"Mommy,",
  "2420": "Ġpract",
  "2421": "Ġexploring",
  "2422": "Ġjoy.",
  "2423": "Ġcow",
  "2424": "Ġgone",
  "2425": "pe",
  "2426": "Ġhone",
  "2427": "Ġres",
  "2428": "Ġfac",
  "2429": "Ġmatter",
  "2430": "Ġdriver",
  "2431": "ts",
  "2432": "Ġquest",
  "2433": "Ġ\"Do",
  "2434": "i,",
  "2435": "Tommy",
  "2436": "Ġ\"Y",
  "2437": "Ġmyster",
  "2438": "Ġwatching",
  "2439": "Ġneighbor",
  "2440": "Ġking",
  "2441": "Ġcal",
  "2442": "pping",
  "2443": "Ġvill",
  "2444": "sy",
  "2445": "ĠWith",
  "2446": "Ġright.",
  "2447": "Ġwhole",
  "2448": "Ġlate.",
  "2449": "Ġwhich",
  "2450": "Ġ\"Wow,",
  "2451": "ĠMr.",
  "2452": "Ġsmelled",
  "2453": "Ġtower",
  "2454": "Ġbucket",
  "2455": "Ġjoy",
  "2456": "Ġspotted",
  "2457": "Ġprot",
  "2458": "ndp",
  "2459": "Ġap",
  "2460": "epend",
  "2461": "Ġsur",
  "2462": "Ġhill.",
  "2463": "Ġdry",
  "2464": "Ġdone,",
  "2465": "Ġyes",
  "2466": "Ġhon",
  "2467": "Ġlaugh.",
  "2468": "Ġmove.",
  "2469": "Ġdress.",
  "2470": "Ġgiant",
  "2471": "Ġhope",
  "2472": "Ġswimming",
  "2473": "Ġpop",
  "2474": "Ġthem,",
  "2475": "Ġorgan",
  "2476": "Ġhungry.",
  "2477": "Ġfron",
  "2478": "Ġzoo",
  "2479": "able.",
  "2480": "Ġprotect",
  "2481": "ten",
  "2482": "Ġcolour",
  "2483": "Ġ\"Okay,",
  "2484": "andy",
  "2485": "Ġsmiles.",
  "2486": "Ġputs",
  "2487": "Ġmeet",
  "2488": "Ġoce",
  "2489": "Ġcandy",
  "2490": "Ġpar",
  "2491": "Ġoff.",
  "2492": "Ġnumber",
  "2493": "Ġspin",
  "2494": "Ġold.",
  "2495": "Ġplaying,",
  "2496": "Ġshouted.",
  "2497": "Ġhungry",
  "2498": "ĠFluffy",
  "2499": "ĠTweet",
  "2500": "Ġfeather",
  "2501": "Ġme.\"",
  "2502": "Ġlay",
  "2503": "Ġmach",
  "2504": "ĠSammy",
  "2505": "Every",
  "2506": "ely.",
  "2507": "Ġshr",
  "2508": "Ġtun",
  "2509": "Ġeag",
  "2510": "Ġpuzz",
  "2511": "Ġrolled",
  "2512": "Ġbusy",
  "2513": "Ġsinging",
  "2514": "erri",
  "2515": "Ġwings",
  "2516": "eb",
  "2517": "ier",
  "2518": "Ġkey",
  "2519": "Ġwindow.",
  "2520": "owed",
  "2521": "Ġpatient",
  "2522": "Ġsack",
  "2523": "ĠCome",
  "2524": "ĠTom,",
  "2525": "Ġasleep",
  "2526": "Ġfirst,",
  "2527": "Ġback,",
  "2528": "eez",
  "2529": "Ġbook.",
  "2530": "Ġmud",
  "2531": "nâ€™t",
  "2532": "Ġconfus",
  "2533": "Ġnow.",
  "2534": "bar",
  "2535": "Ġimpress",
  "2536": "Ġminut",
  "2537": "Ġwild",
  "2538": "Ġfront",
  "2539": "nic",
  "2540": "Ġspent",
  "2541": "Ġmed",
  "2542": "Ġfun,",
  "2543": "ation.",
  "2544": "Just",
  "2545": "Ġpill",
  "2546": "Ġbell",
  "2547": "Ġpicnic",
  "2548": "Ġbeach.",
  "2549": "Ġnaughty",
  "2550": "Luc",
  "2551": "Ġarrived,",
  "2552": "ped",
  "2553": "oph",
  "2554": "Ġval",
  "2555": "\"He",
  "2556": "Ġhelp,",
  "2557": "Ġsupp",
  "2558": "Ġwearing",
  "2559": "Ġtail.",
  "2560": "Ġfoot",
  "2561": "Ġsomething.",
  "2562": "Ġslid",
  "2563": "ĠEll",
  "2564": "Ġ\"B",
  "2565": "ĠJimmy",
  "2566": "Ġfinished,",
  "2567": "Ġtear",
  "2568": "Ġlovely",
  "2569": "Ġmind",
  "2570": "Ġwoman",
  "2571": "Ġrespect",
  "2572": "Ġdaughter",
  "2573": "In",
  "2574": "Ġyou?\"",
  "2575": "Lucy",
  "2576": "Ġsharp",
  "2577": "Ġmom's",
  "2578": "ĠSomet",
  "2579": "Ġsoup",
  "2580": "ĠMitten",
  "2581": "Molly",
  "2582": "Ġhole.",
  "2583": "Ġ\"You're",
  "2584": "Ġexciting",
  "2585": "Ġoven",
  "2586": "Ġsal",
  "2587": "Ġmouth",
  "2588": "Ġmountain",
  "2589": "Later",
  "2590": "Ġbark",
  "2591": "Ġthin",
  "2592": "Ġstorm",
  "2593": "ventually",
  "2594": "Ġcart",
  "2595": "Ġremind",
  "2596": "Ġign",
  "2597": "Ġembar",
  "2598": "itch",
  "2599": "ĠLucy.",
  "2600": "Ġsearch",
  "2601": "Ġembarra",
  "2602": "Ġwhenever",
  "2603": "Ġfish.",
  "2604": "Ġcard",
  "2605": "Ġtrees.",
  "2606": "lex",
  "2607": "Ġperson",
  "2608": "Ġrainbow",
  "2609": "Ġrain.",
  "2610": "Ġtid",
  "2611": "Ġser",
  "2612": "Ġshir",
  "2613": "ĠInside",
  "2614": "Ġtalking",
  "2615": "\"Hello,",
  "2616": "Ġlar",
  "2617": "Ġrock.",
  "2618": "ĠMia.",
  "2619": "Ġthat,",
  "2620": "Ġteach",
  "2621": "Ġtasted",
  "2622": "Ġembarrass",
  "2623": "Ġchick",
  "2624": "Ġgift",
  "2625": "isa",
  "2626": "Ġend,",
  "2627": "Ġblew",
  "2628": "Ġcould.",
  "2629": "Ġmorning",
  "2630": "Ġno,",
  "2631": "Ġlucky",
  "2632": "ove",
  "2633": "Ġ\"He",
  "2634": "lly.",
  "2635": "ried.",
  "2636": "Ġsmooth",
  "2637": "ious.",
  "2638": "illy.",
  "2639": "ular",
  "2640": "Come",
  "2641": "ĠSt",
  "2642": "ize",
  "2643": "Ġboat.",
  "2644": "Ġyard.",
  "2645": "Ġrob",
  "2646": "Ġcastle.",
  "2647": "ĠTom's",
  "2648": "een",
  "2649": "hnn",
  "2650": "Ġpaw",
  "2651": "Ġgoes",
  "2652": "Ġ\"Maybe",
  "2653": "ex",
  "2654": "Ġban",
  "2655": "Ġno.",
  "2656": "ĠGo",
  "2657": "Ġ\"Lily,",
  "2658": "Ġshouted,",
  "2659": "Ġbottle",
  "2660": "Ġpretended",
  "2661": "ish.",
  "2662": "Ġdanced",
  "2663": "Ġrelieved",
  "2664": "Ġpool",
  "2665": "Ġlast",
  "2666": "mer",
  "2667": "Ġsounds",
  "2668": "Ġshoes",
  "2669": "Ġstret",
  "2670": "Ġtool",
  "2671": "Ġâ€œI",
  "2672": "s!",
  "2673": "Ġbi",
  "2674": "ade",
  "2675": "Ġswe",
  "2676": "ĠNow,",
  "2677": "mo",
  "2678": "ĠEverywhere",
  "2679": "Ġdolls",
  "2680": "Ġpaper.",
  "2681": "Ġcoat",
  "2682": "ase,",
  "2683": "Ġquestion",
  "2684": "Ġcoo",
  "2685": "Ġchocol",
  "2686": "Ġparty",
  "2687": "Ġcele",
  "2688": "Ġpour",
  "2689": "Ġdisappear",
  "2690": "Ġself",
  "2691": "Ġwide",
  "2692": "Ġtasty",
  "2693": "Ġstra",
  "2694": "Ġspread",
  "2695": "Ġtomor",
  "2696": "Ġshining",
  "2697": "ond",
  "2698": "Ġstories",
  "2699": "ous,",
  "2700": "ĠHow",
  "2701": "Ġcute",
  "2702": "hile",
  "2703": "ĠThat's",
  "2704": "Ġempt",
  "2705": "Ġwords",
  "2706": "ĠJim",
  "2707": "Ġsol",
  "2708": "Ġcloth",
  "2709": "Ġnearby",
  "2710": "Ġhum",
  "2711": "Ġteet",
  "2712": "Ġpeople.",
  "2713": "ance.",
  "2714": "ied",
  "2715": "Ġtree,",
  "2716": "Ġnew.",
  "2717": "Ġothers.",
  "2718": "Ġforgive",
  "2719": "cer",
  "2720": "ĠAl",
  "2721": "Ġchased",
  "2722": "Ġ\"Hello,",
  "2723": "Ġrobot",
  "2724": "old",
  "2725": "Ġelse.",
  "2726": "Ġbanan",
  "2727": "Ġcann",
  "2728": "Ġroar",
  "2729": "Ġflower.",
  "2730": "ĠOn",
  "2731": "Ġloves",
  "2732": "Ġdirty",
  "2733": "Ġlive",
  "2734": "ĠCh",
  "2735": "Ġdinner",
  "2736": "Ġbarked",
  "2737": "Ġclever",
  "2738": "Ġfinish",
  "2739": "by.",
  "2740": "ighed",
  "2741": "ummy.",
  "2742": "Ġfold",
  "2743": "Ġbooks.",
  "2744": "Ġoutside,",
  "2745": "Ġdid.",
  "2746": "Ġdown,",
  "2747": "oose",
  "2748": "Ġwheel",
  "2749": "ated",
  "2750": "ĠJust",
  "2751": "Ġhang",
  "2752": "Ġ\"Look,",
  "2753": "Ġthat?\"",
  "2754": "Ġcozy",
  "2755": "Ġspray",
  "2756": "Ġspe",
  "2757": "Ġstep",
  "2758": "Ġcannot",
  "2759": "Ġdangerous.",
  "2760": "Mum",
  "2761": "Ġgen",
  "2762": "a,",
  "2763": "Ġforever.",
  "2764": "Ġbackyard.",
  "2765": "oin",
  "2766": "Ġstir",
  "2767": "Ġjung",
  "2768": "Ġeager",
  "2769": "Ġgrew",
  "2770": "lf.",
  "2771": "Ġlat",
  "2772": "Ġveget",
  "2773": "cap",
  "2774": "Ġwore",
  "2775": "Ġlake.",
  "2776": "Ġfurry",
  "2777": "ĠTim's",
  "2778": "Ġbrid",
  "2779": "Ġmead",
  "2780": "Ġstars",
  "2781": "Ġbubble",
  "2782": "Ġpile",
  "2783": "Ġreplied",
  "2784": "Ġanswer",
  "2785": "ange.",
  "2786": "Ġsave",
  "2787": "Ġlock",
  "2788": "box",
  "2789": "Ġkite",
  "2790": "ird",
  "2791": "Ġout,",
  "2792": "Ġash",
  "2793": "Ġtrust",
  "2794": "Ġwip",
  "2795": "Ġmov",
  "2796": "Ġjuice",
  "2797": "Ġfirst.",
  "2798": "Ġkids.",
  "2799": "Ġcrab",
  "2800": "Ġinvit",
  "2801": "Ġwave",
  "2802": "Ġdisappoin",
  "2803": "Ġwalk.",
  "2804": "Ġdeter",
  "2805": "Ġafter.",
  "2806": "Ġ\"A",
  "2807": "Ġworry",
  "2808": "Ġtries",
  "2809": "Ġwelcome,",
  "2810": "Ġtop.",
  "2811": "ane.",
  "2812": "Ġshare.",
  "2813": "Ġdeterm",
  "2814": "ground",
  "2815": "Ġfun!\"",
  "2816": "Ġarms",
  "2817": "Ġlarge",
  "2818": "Ġgoodbye.",
  "2819": "Ġhair.",
  "2820": "ying",
  "2821": "Ġsheep",
  "2822": "Ġalone",
  "2823": "Ġsurprise.",
  "2824": "Ġgames",
  "2825": "room.",
  "2826": "ĠSpot.",
  "2827": "ak.",
  "2828": "Ġneckl",
  "2829": "Ġpush",
  "2830": "Ġcrying",
  "2831": "Ġsour",
  "2832": "Ġlook.",
  "2833": "Ġcrying.",
  "2834": "Ġfence",
  "2835": "ale",
  "2836": "Ġmeant",
  "2837": "Ġworried.",
  "2838": "Ġlot.",
  "2839": "Ġpresent",
  "2840": "Ġpocket",
  "2841": "most",
  "2842": "Ġeventually",
  "2843": "Ġleaves.",
  "2844": "Ġupset",
  "2845": "Ġcolors.",
  "2846": "Ġlem",
  "2847": "board",
  "2848": "Ġme,",
  "2849": "Ġvegetable",
  "2850": "Ġfil",
  "2851": "'d",
  "2852": "Ġall.",
  "2853": "Ġwall.",
  "2854": "ace.",
  "2855": "Ġwrite",
  "2856": "Ġhidd",
  "2857": "Ġwhis",
  "2858": "Ġtwins.",
  "2859": "Ġthing.",
  "2860": "Ġalmost",
  "2861": "Ġâ€œW",
  "2862": "itty",
  "2863": "Ġdecor",
  "2864": "est.",
  "2865": "Ġcars.",
  "2866": "Ġwon",
  "2867": "Ġnoises",
  "2868": "Ġscre",
  "2869": "Ġwaiting",
  "2870": "ĠMum",
  "2871": "hnny",
  "2872": "Ġrocks",
  "2873": "Ġknocked",
  "2874": "Ġexcited,",
  "2875": "Ġstood",
  "2876": "Ġtogether.\"",
  "2877": "Ġav",
  "2878": "aking",
  "2879": "Ġcours",
  "2880": "Ġpri",
  "2881": "Ġdog,",
  "2882": "Ġgun",
  "2883": "ĠEmily",
  "2884": "Ġnut",
  "2885": "Ġcold.",
  "2886": "Ġinteresting",
  "2887": "Ġmean.",
  "2888": "ĠSome",
  "2889": "Ġpromise",
  "2890": "Ġpizz",
  "2891": "Ġlonely",
  "2892": "Ġforward",
  "2893": "Ġanything.",
  "2894": "ĠEven",
  "2895": "Ġknowing",
  "2896": "Ġbounc",
  "2897": "Ġthat.",
  "2898": "Ġgener",
  "2899": "Ġcarried",
  "2900": "s!\"",
  "2901": "ĠTV",
  "2902": "Ġworm",
  "2903": "Ġtells",
  "2904": "Ġhears",
  "2905": "Ġhiding",
  "2906": "\"G",
  "2907": "Ġfanc",
  "2908": "Ġbranch",
  "2909": "Ġfrust",
  "2910": "Ġbread",
  "2911": "Ġmaybe",
  "2912": "\"D",
  "2913": "Ġshiny.",
  "2914": "Ġknow.",
  "2915": "Ġkitten",
  "2916": "irst",
  "2917": "ip.",
  "2918": "Ġtight.",
  "2919": "Ġseat",
  "2920": "Ġbeautiful.",
  "2921": "Ġunderstood",
  "2922": "Ġbal",
  "2923": "Ġ\"Mom,",
  "2924": "Ġdrive",
  "2925": "ĠTheir",
  "2926": "Ġgarden,",
  "2927": "\"You",
  "2928": "Ġug",
  "2929": "Ġgold",
  "2930": "Ġswings",
  "2931": "ĠJenny",
  "2932": "Ġtwins",
  "2933": "\"We",
  "2934": "up",
  "2935": "Ġriver.",
  "2936": "Ġwash",
  "2937": "Ġcross",
  "2938": "Ġinside,",
  "2939": "Ġnight.",
  "2940": "Ġyes,",
  "2941": "ĠTogether",
  "2942": "Ġlanded",
  "2943": "Ġsay.",
  "2944": "Ġbuilding",
  "2945": "Ġlunch",
  "2946": "Ġfrustrat",
  "2947": "\"Maybe",
  "2948": "Ġsea.",
  "2949": "Ġme!\"",
  "2950": "Ġsurprised.",
  "2951": "Ġ\"Of",
  "2952": "Ġhat.",
  "2953": "Ġ\"P",
  "2954": "Ġmissed",
  "2955": "Ġjew",
  "2956": "Ġspider",
  "2957": "Ġadventures",
  "2958": "\"It's",
  "2959": "ĠAnn",
  "2960": "ise",
  "2961": "Ġhidden",
  "2962": "Ġdrew",
  "2963": "Ġtaught",
  "2964": "Ġanyone",
  "2965": "Ġtwirl",
  "2966": "Ġshapes",
  "2967": "ert",
  "2968": "Ġcookies.",
  "2969": "Ġspoil",
  "2970": "Ġchicken",
  "2971": "Ġcour",
  "2972": "Ġroom,",
  "2973": "Ġpay",
  "2974": "Ġmine",
  "2975": "Ġyou're",
  "2976": "Ġburn",
  "2977": "idd",
  "2978": "Ġdangerous",
  "2979": "Ġcourse,",
  "2980": "Ġrope",
  "2981": "Ġwoods",
  "2982": "Ġcalm",
  "2983": "Ġdays",
  "2984": "Ġrec",
  "2985": "Ġfig",
  "2986": "arl",
  "2987": "Ġbirds.",
  "2988": "Ġmot",
  "2989": "Ġtoo.\"",
  "2990": "Ġstanding",
  "2991": "Ġhosp",
  "2992": "Ġhospit",
  "2993": "ĠSara.",
  "2994": "Ġsnake",
  "2995": "Ġmilk",
  "2996": "Ġgathered",
  "2997": "pack",
  "2998": "erv",
  "2999": "Ġmouth.",
  "3000": "fl",
  "3001": "Ġwing",
  "3002": "Ġclothes.",
  "3003": "Ġplane",
  "3004": "Ġtaste",
  "3005": "Ġgo,",
  "3006": "Ġignor",
  "3007": "Ġasham",
  "3008": "Ġbird,",
  "3009": "Ġgroup",
  "3010": "pens",
  "3011": "Ġhealthy",
  "3012": "ĠMar",
  "3013": "ello",
  "3014": "Ġbag.",
  "3015": "Ġhur",
  "3016": "Ġrad",
  "3017": "ĠBe",
  "3018": "ĠSoon,",
  "3019": "iger",
  "3020": "Ġsleep.",
  "3021": "pill",
  "3022": "ure.",
  "3023": "Ġexpens",
  "3024": "ĠWhy",
  "3025": "Ġknow,",
  "3026": "Ġdelight",
  "3027": "ĠZ",
  "3028": "Ġsnowman",
  "3029": "wor",
  "3030": "Ġnerv",
  "3031": "Ġhel",
  "3032": "Ġcoin",
  "3033": "Ġwarm.",
  "3034": "top",
  "3035": "Ġpin",
  "3036": "ato",
  "3037": "ĠJake",
  "3038": "ĠPet",
  "3039": "Ġhello",
  "3040": "rag",
  "3041": "Ġtrick",
  "3042": "osaur",
  "3043": "Ġlemon",
  "3044": "ken.",
  "3045": "Ġfield.",
  "3046": "Ġ'",
  "3047": "Ġreplied.",
  "3048": "Ġsharing",
  "3049": "ndpa",
  "3050": "Ġclear",
  "3051": "erpill",
  "3052": "Ġring",
  "3053": "Ġcaterpill",
  "3054": "Ġtick",
  "3055": "Ġpil",
  "3056": "Ġducks",
  "3057": "Ġlit",
  "3058": "Ġexcitem",
  "3059": "Ġtrip",
  "3060": "Ġyummy.",
  "3061": "Ġparty.",
  "3062": "Ġsunshine.",
  "3063": "Ġreg",
  "3064": "Ġstreet.",
  "3065": "ĠMittens",
  "3066": "\"OK,",
  "3067": "Ġescap",
  "3068": "Ġappeared",
  "3069": "ĠSus",
  "3070": "Ġyou,\"",
  "3071": "Ġspend",
  "3072": "Ġexam",
  "3073": "Ġnap.",
  "3074": "ĠBen's",
  "3075": "Sarah",
  "3076": "Ġdirty.",
  "3077": "Ġsil",
  "3078": "Ġpir",
  "3079": "Ġgrump",
  "3080": "Jane",
  "3081": "Ġadmir",
  "3082": "Ġsold",
  "3083": "Ġdinosaur",
  "3084": "Ġhorse",
  "3085": "\"Mom,",
  "3086": "Ġyes.",
  "3087": "Ġsighed",
  "3088": "Ġcheese",
  "3089": "ness",
  "3090": "Ġgray",
  "3091": "Ġover.",
  "3092": "ator",
  "3093": "Ġjumping",
  "3094": "Ġgently",
  "3095": "Ġflag",
  "3096": "Ġmysterious",
  "3097": "ey",
  "3098": "Ġpacked",
  "3099": "Ġrelax",
  "3100": "Ġinstead",
  "3101": "sel",
  "3102": "ĠBr",
  "3103": "ĠLisa",
  "3104": "Ġfancy",
  "3105": "Ġthese",
  "3106": "Ġtaken",
  "3107": "Ġfence.",
  "3108": "ity",
  "3109": "ase.",
  "3110": "Mama",
  "3111": "Ġfeed",
  "3112": "Ġflut",
  "3113": "issor",
  "3114": "Ġjell",
  "3115": "Ġworking",
  "3116": "Ġspicy",
  "3117": "Ġstuff",
  "3118": "ecially",
  "3119": "Ġanymore",
  "3120": "Ġcrawl",
  "3121": "Ġfear",
  "3122": "Ġ\"Sure,",
  "3123": "orry,",
  "3124": "Ġclown",
  "3125": "Ġchew",
  "3126": "Ġscissor",
  "3127": "Ġ\"Oh",
  "3128": "Ġfire.",
  "3129": "Ġasking",
  "3130": "Ġgar",
  "3131": "Ġmatch",
  "3132": "Ġpoor",
  "3133": "Ġmidd",
  "3134": "Ġblow",
  "3135": "Ġbroken.",
  "3136": "Ġsong.",
  "3137": "Ġby.",
  "3138": "ushed",
  "3139": "Ġpieces.",
  "3140": "Ġgas",
  "3141": "ĠSometimes",
  "3142": "Ġesp",
  "3143": "Ġyourself",
  "3144": "Ġespecially",
  "3145": "Ġhelpful",
  "3146": "Ġhigh.",
  "3147": "Ġteam",
  "3148": "ult",
  "3149": "unk",
  "3150": "Ġcave",
  "3151": "Ġdrum",
  "3152": "Ġplayground",
  "3153": "Ġever.",
  "3154": "Ġwagged",
  "3155": "hin",
  "3156": "Ġwet.",
  "3157": "Ġdirt",
  "3158": "Ġmummy",
  "3159": "Ġrest.",
  "3160": "Ġseed",
  "3161": "That",
  "3162": "Ġdoing?\"",
  "3163": "Ġpeaceful",
  "3164": "mb",
  "3165": "ĠDon't",
  "3166": "Ġthankful",
  "3167": "Ġmedic",
  "3168": "Jimmy",
  "3169": "Ġvan",
  "3170": "ches",
  "3171": "Ġcircle",
  "3172": "Ġreturned",
  "3173": "Ġprince",
  "3174": "Ġwell.",
  "3175": "Ġmic",
  "3176": "Ġwent,",
  "3177": "ĠMommy.",
  "3178": "Ġmoment.",
  "3179": "und",
  "3180": "Ġdrop",
  "3181": "ĠBl",
  "3182": "Ġord",
  "3183": "Ġclean.",
  "3184": "Ġjewel",
  "3185": "ian",
  "3186": "obby",
  "3187": "Ġdest",
  "3188": "ĠSue.",
  "3189": "Ġshoot",
  "3190": "Ġagreed.",
  "3191": "Ġwanted.",
  "3192": "Ġlunch.",
  "3193": "Ġmir",
  "3194": "Ġsaved",
  "3195": "ĠRex",
  "3196": "Ġway,",
  "3197": "Ġfis",
  "3198": "day,",
  "3199": "Ġsplashed",
  "3200": "Ġlife",
  "3201": "Ġpan",
  "3202": "Ġsea",
  "3203": "Ġpress",
  "3204": "Ġsuit",
  "3205": "Ġshad",
  "3206": "ouse.",
  "3207": "Ġcro",
  "3208": "and.",
  "3209": "ote",
  "3210": "Ġston",
  "3211": "Ġpupp",
  "3212": "Ġnose",
  "3213": "Ġcloser.",
  "3214": "Ġenough,",
  "3215": "Ġ\"What's",
  "3216": "Ġjeal",
  "3217": "Ġsoar",
  "3218": "Ġext",
  "3219": "Ġthings,",
  "3220": "body",
  "3221": "\"Sure,",
  "3222": "Ġclap",
  "3223": "Ġwander",
  "3224": "Ġsand.",
  "3225": "Ġpictures.",
  "3226": "Ġeld",
  "3227": "Ġfixed",
  "3228": "Ġdad,",
  "3229": "Ġpolice",
  "3230": "Ġoften",
  "3231": "Ġ\"Look",
  "3232": "Ġsuccess",
  "3233": "ned",
  "3234": "ries",
  "3235": "Ġtea",
  "3236": "Ġpocket.",
  "3237": "Ġpowerful",
  "3238": "Ġcheck",
  "3239": "Ġpur",
  "3240": "Ġmanag",
  "3241": "Ġcrown",
  "3242": "Ġscreamed",
  "3243": "Ġcareful,",
  "3244": "Ġstring",
  "3245": "Ġfaster.",
  "3246": "Ġkissed",
  "3247": "Ġwords.",
  "3248": "Ġcar,",
  "3249": "illed",
  "3250": "Ġlif",
  "3251": "Ġbench",
  "3252": "Ġfriend.\"",
  "3253": "Ġgets",
  "3254": "erly",
  "3255": "Ġcrack",
  "3256": "Ġdark.",
  "3257": "Ġeverywhere.",
  "3258": "Ġschool.",
  "3259": "ue,",
  "3260": "Ġmap",
  "3261": "Ġnoises.",
  "3262": "Ġsick.",
  "3263": "Ġproblem",
  "3264": "Ġhopping",
  "3265": "Ġsplash",
  "3266": "le,",
  "3267": "Ġcan.",
  "3268": "Ġeveryone.",
  "3269": "Ġbecome",
  "3270": "Jill",
  "3271": "Ġdone.",
  "3272": "Ġextra",
  "3273": "come",
  "3274": "kin",
  "3275": "w,",
  "3276": "Ġlead",
  "3277": "erry",
  "3278": "Ġyard",
  "3279": "port",
  "3280": "Ġskipped",
  "3281": "lease,",
  "3282": "Ġlog",
  "3283": "Ġsword",
  "3284": "Ġstick.",
  "3285": "Ġsailed",
  "3286": "Ġdetermined",
  "3287": "Ġthick",
  "3288": "Their",
  "3289": "ĠAt",
  "3290": "ss,",
  "3291": "ventually,",
  "3292": "Ġshirt",
  "3293": "Ġfather",
  "3294": "ĠBob.",
  "3295": "Ġincred",
  "3296": "Ġrid",
  "3297": "Ġunus",
  "3298": "Ġcandy.",
  "3299": "Ġswing.",
  "3300": "Ġtrouble.",
  "3301": "Ġind",
  "3302": "Ġsoap",
  "3303": "Ġadventures.",
  "3304": "Ġunusu",
  "3305": "Ġsell",
  "3306": "Ġcream.",
  "3307": "re,",
  "3308": "cept",
  "3309": "Ġtest",
  "3310": "ien",
  "3311": "Ġdaddy.",
  "3312": "Ġwolf",
  "3313": "elp",
  "3314": "Ġmommy,",
  "3315": "Ġcreative",
  "3316": "Ġmeasure",
  "3317": "ĠJohnny",
  "3318": "uggest",
  "3319": "Ġmirr",
  "3320": "etâ€™s",
  "3321": "Ġto.",
  "3322": "illi",
  "3323": "Ġsuggest",
  "3324": "keep",
  "3325": "Ġplan.",
  "3326": "Ġball,",
  "3327": "Ġhonest",
  "3328": "ife",
  "3329": "orn.",
  "3330": "ĠYou're",
  "3331": "Ġrealised",
  "3332": "ite.",
  "3333": "Ġus.",
  "3334": "Ġbutterfly.",
  "3335": "Ġchildren.",
  "3336": "Ġ\"My",
  "3337": "\"Hey,",
  "3338": "Ġlicked",
  "3339": "Ġmoon",
  "3340": "less.",
  "3341": "ĠIf",
  "3342": "Ġbranc",
  "3343": "Ġcloser,",
  "3344": "Ġdrank",
  "3345": "Ġsky,",
  "3346": "Ġadventur",
  "3347": "Ġsug",
  "3348": "Ġpicks",
  "3349": "Ġamazed.",
  "3350": "Ġscary.",
  "3351": "Ġcorner",
  "3352": "Ġtag",
  "3353": "Ġcaterpillar",
  "3354": "ĠTeddy",
  "3355": "Ġsparkly",
  "3356": "Ġrabbit.",
  "3357": "ache",
  "3358": "Ġgrandma.",
  "3359": "Ġboss",
  "3360": "Ġclouds",
  "3361": "Ġcirc",
  "3362": "Ġcovered",
  "3363": "Ġ\"Good",
  "3364": "Ġdiscovered",
  "3365": "Ġcourse",
  "3366": "par",
  "3367": "Ġwrote",
  "3368": "Soon,",
  "3369": "Ġleaf",
  "3370": "Ġ\"Yes",
  "3371": "Ġchocolate",
  "3372": "Ġrecord",
  "3373": "ina",
  "3374": "Ġfriendly.",
  "3375": "Ġcalling",
  "3376": "Ġrocket",
  "3377": "Ġed",
  "3378": "Ġladder",
  "3379": "cil",
  "3380": "Ġknight",
  "3381": "Ġstop.",
  "3382": "Ġdig",
  "3383": "Ġshy",
  "3384": "Ġmoney.",
  "3385": "Ġpencil",
  "3386": "iff",
  "3387": "Ġ\"No",
  "3388": "pped.",
  "3389": "Ġside.",
  "3390": "Ġsmiling.",
  "3391": "Ġmachine",
  "3392": "led.",
  "3393": "ĠJane.",
  "3394": "Ġagain.\"",
  "3395": "Ġlying",
  "3396": "Ġpath",
  "3397": "Ġpee",
  "3398": "Ġold,",
  "3399": "Ġmusic.",
  "3400": "Ġanimals,",
  "3401": "Ġloud.",
  "3402": "ĠPeter",
  "3403": "Ġwalking,",
  "3404": "Ġins",
  "3405": "Ġtwist",
  "3406": "Ġforest,",
  "3407": "Ġelderly",
  "3408": "To",
  "3409": "iqu",
  "3410": "ily,",
  "3411": "Ġloy",
  "3412": "ope.",
  "3413": "\"B",
  "3414": "Ġbottom",
  "3415": "Ġjourney",
  "3416": "Ġstraw",
  "3417": "Ġcost",
  "3418": "Ġjog",
  "3419": "Ġwalked,",
  "3420": "Ġbackyard",
  "3421": "Ġlong,",
  "3422": "Ġocean",
  "3423": "Ġstair",
  "3424": "Ġâ€œL",
  "3425": "Sally",
  "3426": "imes,",
  "3427": "asing",
  "3428": "Ġcraw",
  "3429": "Ġbreakf",
  "3430": "Ġpray",
  "3431": "ĠSam,",
  "3432": "Ġpassed",
  "3433": "Ġcrawled",
  "3434": "Ġaw",
  "3435": "Ġfavour",
  "3436": "ony",
  "3437": "Ġborrow",
  "3438": "Ġlonely.",
  "3439": "Ġfunny.",
  "3440": "Ġuniqu",
  "3441": "Ġfarm.",
  "3442": "ĠLittle",
  "3443": "Ġoffered",
  "3444": "Ġdrawing",
  "3445": "Ġperform",
  "3446": "\"A",
  "3447": "Billy",
  "3448": "Ġtoug",
  "3449": "Ġrare",
  "3450": "ad,",
  "3451": "Ġquiet.",
  "3452": "Ġbloom",
  "3453": "Ġmiddle",
  "3454": "fic",
  "3455": "Ġmanaged",
  "3456": "ti",
  "3457": "Ġmod",
  "3458": "Ġenjoying",
  "3459": "Ġapples",
  "3460": "ured",
  "3461": "\"Oh",
  "3462": "Ġagain!",
  "3463": "Ġcleaned",
  "3464": "Ġwas,",
  "3465": "Ġfly.",
  "3466": "ĠSarah.",
  "3467": "enny",
  "3468": "Ġagainst",
  "3469": "Ġpleased",
  "3470": "Ġluck",
  "3471": "Ġpump",
  "3472": "Ġfrid",
  "3473": "Ġbed,",
  "3474": "Ġfree",
  "3475": "Ġdiffic",
  "3476": "Ġspun",
  "3477": "Ġmarch",
  "3478": "Ġfavourite",
  "3479": "Ġbarn",
  "3480": "ighten",
  "3481": "Ġphone",
  "3482": "Ġfool",
  "3483": "ĠPlease",
  "3484": "ĠBun",
  "3485": "Ġwrapped",
  "3486": "Ġnet",
  "3487": "Ġstore,",
  "3488": "Ġgiving",
  "3489": "Ġmighty",
  "3490": "ffe",
  "3491": "Ġbur",
  "3492": "olog",
  "3493": "Ġbike.",
  "3494": "Ġcre",
  "3495": "Ġtie",
  "3496": "Ġcher",
  "3497": "ĠMark",
  "3498": "ĠBrown",
  "3499": "ĠDad.",
  "3500": "Ġcompet",
  "3501": "Ġfighting",
  "3502": "pper",
  "3503": "Ġarg",
  "3504": "Ġsqueez",
  "3505": "Ġcolourful",
  "3506": "Ġhappin",
  "3507": "Ġlose",
  "3508": "iv",
  "3509": "umbled",
  "3510": "Ġfamous",
  "3511": "Ġstone",
  "3512": "Ġboot",
  "3513": "ient.",
  "3514": "Ġtrees,",
  "3515": "Ġapolog",
  "3516": "Ġroad.",
  "3517": "Ġbox,",
  "3518": "Ġdeer",
  "3519": "Ġjelly",
  "3520": "Ġhunt",
  "3521": "Ġtoo!\"",
  "3522": "Ġcool.",
  "3523": "Ġfaces.",
  "3524": "Ġstrange.",
  "3525": "Ġokay?\"",
  "3526": "Ġfrown",
  "3527": "ic.",
  "3528": "Ġnorm",
  "3529": "Ġdecide",
  "3530": "ĠSuddenly",
  "3531": "Ġfrighten",
  "3532": "Ġhere.",
  "3533": "Ġflowers,",
  "3534": "Ġwalks",
  "3535": "Ġcouch",
  "3536": "Ġcookie",
  "3537": "Ġbald",
  "3538": "Ġtunn",
  "3539": "Ġfake",
  "3540": "ter.",
  "3541": "Ġfun.\"",
  "3542": "Ġgrown",
  "3543": "Ġglow",
  "3544": "Ġonce",
  "3545": "Ġwent.",
  "3546": "Ġaccept",
  "3547": "Ġmelt",
  "3548": "Ġshark",
  "3549": "Ġgirl's",
  "3550": "Ġalread",
  "3551": "uggled",
  "3552": "Ġit,\"",
  "3553": "Ġwhistle",
  "3554": "Ġweird",
  "3555": "Ġbanana",
  "3556": "Ġgrace",
  "3557": "Ġshows",
  "3558": "Ġnecklace",
  "3559": "Ġdepend",
  "3560": "Ġbench.",
  "3561": "az",
  "3562": "Ġlight.",
  "3563": "oop",
  "3564": "Ġugly",
  "3565": "Ġplate",
  "3566": "Ġqueen",
  "3567": "work",
  "3568": "Ġbush.",
  "3569": "Ġpizza",
  "3570": "Ġmotor",
  "3571": "Ġstrawber",
  "3572": "ilt",
  "3573": "ning.",
  "3574": "Ġsmart.",
  "3575": "Ġobed",
  "3576": "Ġrough",
  "3577": "Ġcomfortable",
  "3578": "Ġbreath",
  "3579": "Ġsmiling",
  "3580": "Ġadded",
  "3581": "Ġloyal",
  "3582": "Ġbump",
  "3583": "Ġham",
  "3584": "Ġjack",
  "3585": "ject",
  "3586": "Ġstream",
  "3587": "Ġglass",
  "3588": "Ġtidy",
  "3589": "ud",
  "3590": "cess.",
  "3591": "als",
  "3592": "\"Y",
  "3593": "Dad",
  "3594": "Ġturt",
  "3595": "ĠEnd.",
  "3596": "Ġfour",
  "3597": "Ġfigure",
  "3598": "Amy",
  "3599": "Ġnose.",
  "3600": "Ġvalu",
  "3601": "Ġneeds",
  "3602": "Ġstubb",
  "3603": "Ġcover",
  "3604": "Ġbranch.",
  "3605": "Ġmixed",
  "3606": "oot",
  "3607": "Ġship",
  "3608": "ĠNo",
  "3609": "ery",
  "3610": "Ġroo",
  "3611": "Ġsandwich",
  "3612": "ime",
  "3613": "Ġref",
  "3614": "Ġbrilli",
  "3615": "ĠMax,",
  "3616": "imp",
  "3617": "aul",
  "3618": "Ġincredible",
  "3619": "Ġseen.",
  "3620": "Ġcave.",
  "3621": "Ġshock",
  "3622": "Ġdolls.",
  "3623": "Ben,",
  "3624": "Ġbitt",
  "3625": "Ġclapp",
  "3626": "ella",
  "3627": "ym",
  "3628": "Ġchase",
  "3629": "Ġchar",
  "3630": "Ġtown.",
  "3631": "Ġbrilliant",
  "3632": "Ġfat",
  "3633": "Ġpicture.",
  "3634": "Ġmagn",
  "3635": "Ġupset.",
  "3636": "Ġgenerous",
  "3637": "Ġlifted",
  "3638": "Ġpal",
  "3639": "Ġtwig",
  "3640": "Ġgames.",
  "3641": "Ġconfused.",
  "3642": "Ġscare",
  "3643": "Ġlazy",
  "3644": "Ġunl",
  "3645": "Ġrelia",
  "3646": "Ġblanket.",
  "3647": "row.",
  "3648": "erg",
  "3649": "Ġwealth",
  "3650": "Ġkinds",
  "3651": "Ġ\"Hi,",
  "3652": "Ġpointing",
  "3653": "Ġpuddle",
  "3654": "Ġlibr",
  "3655": "ĠFin",
  "3656": "Joe",
  "3657": "Ġguess",
  "3658": "uce",
  "3659": "Ġusing",
  "3660": "Ġstreet",
  "3661": "Ġgiggled",
  "3662": "Ġsticks",
  "3663": "Ġsmelly",
  "3664": "Ġdish",
  "3665": "Ġdolp",
  "3666": "Ġsee.",
  "3667": "laim",
  "3668": "Ġberri",
  "3669": "Ġguit",
  "3670": "Ġtrack",
  "3671": "Ġ\"OK,",
  "3672": "Ġdreamed",
  "3673": "ĠTogether,",
  "3674": "Ġalready",
  "3675": "Ġunderstand.",
  "3676": "Ġdance.",
  "3677": "Ġcompetit",
  "3678": "Ġfier",
  "3679": "Ġjoined",
  "3680": "Ġnur",
  "3681": "Ġexclaim",
  "3682": "ĠWhenever",
  "3683": "Ġrace.",
  "3684": "Ġflash",
  "3685": "Ġempty",
  "3686": "Ġstory.",
  "3687": "Ġhoney",
  "3688": "Ġtank",
  "3689": "Ġfeet",
  "3690": "Ġpriz",
  "3691": "Ġlean",
  "3692": "Ġdancing",
  "3693": "Ġgrumpy",
  "3694": "man.",
  "3695": "Ġjam",
  "3696": "Ġsounded",
  "3697": "Ġpillow",
  "3698": "Ġindepend",
  "3699": "Ġanc",
  "3700": "Ġclass",
  "3701": "aw",
  "3702": "pot",
  "3703": "Ġgem",
  "3704": "Ġnow.\"",
  "3705": "Ġbrother.",
  "3706": "ee",
  "3707": "Ġslipped",
  "3708": "Ġdesign",
  "3709": "Ġdisappoint",
  "3710": "ĠSoon",
  "3711": "Ġcab",
  "3712": "Ġenorm",
  "3713": "Ġdiscover",
  "3714": "cy",
  "3715": "atter",
  "3716": "ĠBut,",
  "3717": "Ġtowel",
  "3718": "Ġreminded",
  "3719": "Ġfrag",
  "3720": "ity.",
  "3721": "Ġmouse.",
  "3722": "Ġproblem.",
  "3723": "Ġyog",
  "3724": "Ġwater,",
  "3725": "Ġtomorrow",
  "3726": "Ġsilly.",
  "3727": "Ġsnow.",
  "3728": "ĠLily!",
  "3729": "Ġgirl,",
  "3730": "Ġsmall,",
  "3731": "Ġasks",
  "3732": "Ġfountain",
  "3733": "Ġinvited",
  "3734": "Ġ\"Come",
  "3735": "Ġterri",
  "3736": "Ġyarn",
  "3737": "Ġlife.",
  "3738": "b.",
  "3739": "ext",
  "3740": "Ġwaves",
  "3741": "Ġchose",
  "3742": "Ġcrayons",
  "3743": "Ġharm",
  "3744": "Ġtrouble",
  "3745": "Ġtoy,",
  "3746": "Ġinstead.",
  "3747": "\"That's",
  "3748": "Ġballoon.",
  "3749": "Ġanswer.",
  "3750": "Ġbelonged",
  "3751": "irp",
  "3752": "Ġever!",
  "3753": "Sue",
  "3754": "Ġcamer",
  "3755": "Ġjuice.",
  "3756": "Ġtreasure.",
  "3757": "Ġtry.",
  "3758": "dge",
  "3759": "Ġplease!\"",
  "3760": "Ġcelebr",
  "3761": "k,",
  "3762": "Ġbeet",
  "3763": "Ġgo!\"",
  "3764": "Ġdiam",
  "3765": "ĠU",
  "3766": "ĠMy",
  "3767": "Ġdistance.",
  "3768": "Ġcudd",
  "3769": "Ġroad",
  "3770": "ĠNem",
  "3771": "Ġshapes.",
  "3772": "ed!",
  "3773": "Ġhelps",
  "3774": "Ġparrot",
  "3775": "Ġshowing",
  "3776": "Ġimportant.",
  "3777": "Ġplaces",
  "3778": "Ġvillage",
  "3779": "Ġwake",
  "3780": "oup.",
  "3781": "Ġbrush",
  "3782": "Ġtower.",
  "3783": "Ġbush",
  "3784": "anut",
  "3785": "Ġselfish",
  "3786": "Ġcostum",
  "3787": "aser",
  "3788": "keeper",
  "3789": "Ġancient",
  "3790": "dom",
  "3791": "ier.",
  "3792": "kn",
  "3793": "Ġcere",
  "3794": "ira",
  "3795": "Ġstories.",
  "3796": "Ġpuzzle",
  "3797": "ĠLeo",
  "3798": "Ġslide,",
  "3799": "Ġstopped.",
  "3800": "Ġheavy.",
  "3801": "Ġcop",
  "3802": "Ġwhale",
  "3803": "Ġlaw",
  "3804": "Em",
  "3805": "Ġsock",
  "3806": "Ġrude",
  "3807": "Ġunusual",
  "3808": "Ġtiger",
  "3809": "Ġweek",
  "3810": "ĠMax's",
  "3811": "Ġbull",
  "3812": "Ġmeans",
  "3813": "hes,",
  "3814": "Ġrep",
  "3815": "Ġlearning",
  "3816": "Timmy's",
  "3817": "Ġjob,",
  "3818": "Ġstumbled",
  "3819": "ĠOK",
  "3820": "Ġgift.",
  "3821": "Ġrich",
  "3822": "Ġhappily.",
  "3823": "Ġsurprise,",
  "3824": "ating",
  "3825": "Ġfound.",
  "3826": "Ġhour",
  "3827": "Ġstri",
  "3828": "Ġenormous",
  "3829": "eor",
  "3830": "Ġrushed",
  "3831": "Ġnot.",
  "3832": "Ġchoose",
  "3833": "Ġtele",
  "3834": "Ġeasy",
  "3835": "Ġthemsel",
  "3836": "ano",
  "3837": "Ġadmired",
  "3838": "Mummy",
  "3839": "ally.",
  "3840": "way.",
  "3841": "Ġmad.",
  "3842": "Ġjuicy",
  "3843": "igin",
  "3844": "Ġrode",
  "3845": "Ġdifferent.",
  "3846": "ĠKitty",
  "3847": "Ġjourney.",
  "3848": "ĠSusie",
  "3849": "ie,",
  "3850": "Ġgoat",
  "3851": "Ġbiggest",
  "3852": "Ġtooth",
  "3853": "Ġthirst",
  "3854": "ĠBenny.",
  "3855": "Ġvie",
  "3856": "Ġnice,",
  "3857": "Ġwhile.",
  "3858": "Ġtreat.",
  "3859": "Ġenvel",
  "3860": "cod",
  "3861": "Ġcomput",
  "3862": "Ġraced",
  "3863": "Ġwrap",
  "3864": "known",
  "3865": "Ġchange",
  "3866": "Ġsunfl",
  "3867": "Ġmonst",
  "3868": "Ġbedroom",
  "3869": "Ġasleep.",
  "3870": "Ġfight.",
  "3871": "ely,",
  "3872": "Ġlove.",
  "3873": "Ġbugs",
  "3874": "zy.",
  "3875": "rell",
  "3876": "Ġseem",
  "3877": "Ġresc",
  "3878": "Al",
  "3879": "Ġwand",
  "3880": "Ġshone",
  "3881": "Ġtravel",
  "3882": "ast.",
  "3883": "Ġorigin",
  "3884": "Ġsett",
  "3885": "Ġplease?\"",
  "3886": "Ġline",
  "3887": "Ġweak",
  "3888": "Ġbest.",
  "3889": "Ġbake",
  "3890": "Ġfluffy",
  "3891": "Ġjob.",
  "3892": "ĠBlue",
  "3893": "arry",
  "3894": "Ġmemor",
  "3895": "Ġcheap",
  "3896": "ets",
  "3897": "Ġenc",
  "3898": "Ġfree.",
  "3899": "Ġlegs",
  "3900": "Ġclum",
  "3901": "Ġpeanut",
  "3902": "Ġpicking",
  "3903": "uring",
  "3904": "Ġheart.",
  "3905": "Ġpoured",
  "3906": "Ġscrat",
  "3907": "Ġsoon,",
  "3908": "Ġforever",
  "3909": "Ġgrand",
  "3910": "Ġplaces.",
  "3911": "Ġdull",
  "3912": "Ġunknown",
  "3913": "Ġpainting",
  "3914": "Ġcrocod",
  "3915": "Ġsugar",
  "3916": "pid",
  "3917": "Ġclock",
  "3918": "Ġnearby.",
  "3919": "Ġfalls",
  "3920": "Ġtoday.",
  "3921": "se,",
  "3922": "Ġheal",
  "3923": "Ġmis",
  "3924": "Ġsister.",
  "3925": "Ġunique",
  "3926": "Ġrefus",
  "3927": "Ġkicked",
  "3928": "Ġpopc",
  "3929": "Ġknows",
  "3930": "Ġclose.",
  "3931": "Ġparents.",
  "3932": "Ġdough",
  "3933": "-up",
  "3934": "Gra",
  "3935": "Ġtent",
  "3936": "Ġpant",
  "3937": "Ġnow,",
  "3938": "Ġunlock",
  "3939": "Ġmoving",
  "3940": "Ġocean.",
  "3941": "Ġcare.",
  "3942": "Ġstupid",
  "3943": "Ġpersist",
  "3944": "Ġlion.",
  "3945": "tern",
  "3946": "Ġbirthday.",
  "3947": "Ġangel",
  "3948": "Ġdoor,",
  "3949": "Ġus.\"",
  "3950": "Ġcrayons.",
  "3951": "Ġsunshine",
  "3952": "Ġsolve",
  "3953": "Ġvaluable",
  "3954": "Ġswings.",
  "3955": "Ġcarrots",
  "3956": "Ġwiped",
  "3957": "Ġedge",
  "3958": "Ġâ€",
  "3959": "Ġwire",
  "3960": "ither",
  "3961": "Ġsnack.",
  "3962": "Ġumb",
  "3963": "Ġbuilt",
  "3964": "Ġflashl",
  "3965": "Ġumbrell",
  "3966": "Ġlost.",
  "3967": "Ġtoo!",
  "3968": "Ġ\"Hello",
  "3969": "Ġcompass",
  "3970": "Ġtreats",
  "3971": "Ġfierce",
  "3972": "Ġtelling",
  "3973": "Ġview",
  "3974": "ĠFr",
  "3975": "Ġcounted",
  "3976": "Ġcries.",
  "3977": "Ġbowl.",
  "3978": "ĠBobby",
  "3979": "Ġfinding",
  "3980": "Ġhere?\"",
  "3981": "Ġstranger",
  "3982": "Ġpeeked",
  "3983": "Ġmoder",
  "3984": "Ġadv",
  "3985": "Ġnoisy",
  "3986": "Ġdeliver",
  "3987": "ĠFred",
  "3988": "Ġembarrassed",
  "3989": "Ġnat",
  "3990": "Ġswan",
  "3991": "Ġpainted",
  "3992": "Ġsudden",
  "3993": "ĠSn",
  "3994": "ĠDais",
  "3995": "Ġknee.",
  "3996": "Ġimagin",
  "3997": "ĠMrs.",
  "3998": "Ġdifficult",
  "3999": "Ġicy",
  "4000": "Ġmel",
  "4001": "Ġrat",
  "4002": "Ġshel",
  "4003": "Ġexplored",
  "4004": "Ġing",
  "4005": "eak",
  "4006": "ek.",
  "4007": "Ġopen.",
  "4008": "Ġsmall.",
  "4009": "Ġboy,",
  "4010": "ĠAnna's",
  "4011": "Ġchest",
  "4012": "Ġshelf.",
  "4013": "Ġplay,",
  "4014": "Ġpolite",
  "4015": "Ġtom",
  "4016": "Ġdo?\"",
  "4017": "Ġnosy",
  "4018": "Ġbird's",
  "4019": "Ġavo",
  "4020": "Ġingred",
  "4021": "Ġwashed",
  "4022": "Ġrubb",
  "4023": "\"Don't",
  "4024": "While",
  "4025": "arth",
  "4026": "Ġpattern",
  "4027": "Ġspot.",
  "4028": "Ġmodern",
  "4029": "Ġstat",
  "4030": "Ġtap",
  "4031": "Ġsneez",
  "4032": "\"Okay,",
  "4033": "Ġmailbox",
  "4034": "Ġcur",
  "4035": "Ġhard,",
  "4036": "Ġfreez",
  "4037": "Ġwrit",
  "4038": "ĠRos",
  "4039": "Ġingredient",
  "4040": "\"Tom",
  "4041": "Ġdry.",
  "4042": "Ġoper",
  "4043": "ĠPete",
  "4044": "dy,",
  "4045": "na",
  "4046": "Ġthose",
  "4047": "ĠWhile",
  "4048": "Ġscarf",
  "4049": "Ġfriendsh",
  "4050": "comfort",
  "4051": "Ġhello.",
  "4052": "Ġshiver",
  "4053": "Ġready.",
  "4054": "Ġstretch",
  "4055": "ment",
  "4056": "Ġseek",
  "4057": "Ġcheerful",
  "4058": "Ġwings.",
  "4059": "i.",
  "4060": "Ġhappen.",
  "4061": "Ġliz",
  "4062": "Ġthought,",
  "4063": "-y",
  "4064": "Ġaunt",
  "4065": "ine,",
  "4066": "Ġtoo?\"",
  "4067": "Ġuncomfort",
  "4068": "il.",
  "4069": "Ġbalance",
  "4070": "Ġexpensive",
  "4071": "Ġsoup.",
  "4072": "Ġname.",
  "4073": "Ġcarefully.",
  "4074": "Ġdreaming",
  "4075": "Ġnest.",
  "4076": "Ġashamed.",
  "4077": "Ġprint",
  "4078": "Ġbatter",
  "4079": "Ġgoing.",
  "4080": "Ġcomplet",
  "4081": "Ġcarrying",
  "4082": "Ġlamp",
  "4083": "Ġsniff",
  "4084": "onâ€™t",
  "4085": "Ġworry.",
  "4086": "Ġlady.",
  "4087": "Ġenv",
  "4088": "Ġshoes.",
  "4089": "Ġpige",
  "4090": "Ġbone",
  "4091": "Ġflex",
  "4092": "Ġboard",
  "4093": "Ġsteal",
  "4094": "Ġadventurous",
  "4095": "Ġquickly.",
  "4096": "Ġleaving",
  "4097": "Ġteeth.",
  "4098": "Ġguil",
  "4099": "Ġnormal",
  "4100": "Ġcompassion",
  "4101": "ies,",
  "4102": "Ġer",
  "4103": "Ġpost",
  "4104": "Ġtied",
  "4105": "it.",
  "4106": "Ġtrump",
  "4107": "Ġjoke",
  "4108": "Ġthinking",
  "4109": "ellig",
  "4110": "ĠSam's",
  "4111": "Ġthis?\"",
  "4112": "\"Look",
  "4113": "Ġsongs.",
  "4114": "-year",
  "4115": "Ġyelled",
  "4116": "Ġfrog.",
  "4117": "Ġregular",
  "4118": "awn",
  "4119": "Ġintellig",
  "4120": "Ġperm",
  "4121": "Ġdelicious.",
  "4122": "Ġhelm",
  "4123": "Ġreliable",
  "4124": "Ġscatter",
  "4125": "Ġdependable",
  "4126": "Ġsink",
  "4127": "Ġdust",
  "4128": "Ġshore.",
  "4129": "Ġbunny.",
  "4130": "uffy.",
  "4131": "Ġstars.",
  "4132": "ola",
  "4133": "Ġteeth",
  "4134": "ef",
  "4135": "het",
  "4136": "ention",
  "4137": "ĠYour",
  "4138": "Ġwealthy",
  "4139": "Ġjug",
  "4140": "Ġsorts",
  "4141": "Ġhero",
  "4142": "Ġtightly.",
  "4143": "Ġscissors",
  "4144": "Ġot",
  "4145": "anny",
  "4146": "Ġanx",
  "4147": "Ġhanded",
  "4148": "Ġlaughing.",
  "4149": "ĠSally.",
  "4150": "Ġnotice",
  "4151": "Ġallowed",
  "4152": "ell,",
  "4153": "Ġpebble",
  "4154": "Ġmilk.",
  "4155": "Ġday!",
  "4156": "Ġruin",
  "4157": "Ġrocks.",
  "4158": "\"That",
  "4159": "Ġcooking",
  "4160": "Ġdestro",
  "4161": "eorge",
  "4162": "ness.",
  "4163": "Ġfort",
  "4164": "aghet",
  "4165": "Ġtough",
  "4166": "Ġvase",
  "4167": "Ġdoesn't",
  "4168": "Ġrubbed",
  "4169": "Ġcheered.",
  "4170": "Ġhoney.",
  "4171": "Ġsuggested",
  "4172": "Ġplaced",
  "4173": "Ġbounce",
  "4174": "Ġlater",
  "4175": "Ġshut",
  "4176": "Ġspilled",
  "4177": "-old",
  "4178": "ric",
  "4179": "\"But",
  "4180": "Ġbrace",
  "4181": "Ġrud",
  "4182": "Ġmarble",
  "4183": "cus",
  "4184": "Ġmay",
  "4185": "anged",
  "4186": "Ġspaghet",
  "4187": "Ġchasing",
  "4188": "Ġpup",
  "4189": "Ġruined",
  "4190": "Ġdream.",
  "4191": "Ġfresh",
  "4192": "Ġbridge",
  "4193": "der.",
  "4194": "Ġrug",
  "4195": "Ġload",
  "4196": "Ġscoot",
  "4197": "Ġhot.",
  "4198": "llip",
  "4199": "Ġri",
  "4200": "Ġeng",
  "4201": "Ġbutterfl",
  "4202": "Ġplants",
  "4203": "Ġmistake.",
  "4204": "Ġcabin",
  "4205": "Ġoriginal",
  "4206": "llipop",
  "4207": "ĠAlex",
  "4208": "Ġpractice",
  "4209": "Ġresist",
  "4210": "-c",
  "4211": "Ġdove",
  "4212": "oby",
  "4213": "Ġblueber",
  "4214": "Ġdirt.",
  "4215": "Ġarm.",
  "4216": "Ġencou",
  "4217": "-a",
  "4218": "brat",
  "4219": "Ġbean",
  "4220": "Ġstamp",
  "4221": "Ġtrut",
  "4222": "izzy",
  "4223": "Ġpleas",
  "4224": "Ġmessy",
  "4225": "Ġtor",
  "4226": "ĠMummy",
  "4227": "ĠDucky",
  "4228": "Ġsquare",
  "4229": "Ġordin",
  "4230": "Ġrepair",
  "4231": "oppy",
  "4232": "Ġno!",
  "4233": "Ġsnuggled",
  "4234": "Ġbite.",
  "4235": "Ġrub",
  "4236": "Ġone,",
  "4237": "Ġshield",
  "4238": "Ġlollipop",
  "4239": "Ġglue",
  "4240": "Ġhairy",
  "4241": "Ġpool.",
  "4242": "Ġjealous",
  "4243": "ill.",
  "4244": "Ġthoughtful",
  "4245": "Ġvol",
  "4246": "ict",
  "4247": "Ġabove",
  "4248": "\"Help",
  "4249": "loo",
  "4250": "Ġrece",
  "4251": "Ġremain",
  "4252": "Ġcelebrat",
  "4253": "Ġover,",
  "4254": "Ġ\"Oh,",
  "4255": "Ġsweet.",
  "4256": "Ġcush",
  "4257": "?\".",
  "4258": "ĠDave",
  "4259": "Ġdisg",
  "4260": "Ġfriends.\"",
  "4261": "Ġcrick",
  "4262": "Ġtape",
  "4263": "Ġjungle.",
  "4264": "Ġfoolish",
  "4265": "Ġsing.",
  "4266": "Ġgum",
  "4267": "Ġtried,",
  "4268": "Ġoven.",
  "4269": "Ġhours",
  "4270": "Ġbirdie",
  "4271": "Ġwagon",
  "4272": "Ġexcitement.",
  "4273": "Ġdisgust",
  "4274": "Ġimpat",
  "4275": "Ġprincess.",
  "4276": "Ġattract",
  "4277": "ĠNemo",
  "4278": "Ġ\"R",
  "4279": "ĠKim",
  "4280": "Ġclouds.",
  "4281": "Ġbent",
  "4282": "Ġitself",
  "4283": "rick",
  "4284": "Ġno!\"",
  "4285": "Ġgloom",
  "4286": "Ġ\"Hi",
  "4287": "Ġobject",
  "4288": "Ġnods.",
  "4289": "Ġmeadow",
  "4290": "Ġmine!\"",
  "4291": "Ġahe",
  "4292": "Ġsiz",
  "4293": "ath",
  "4294": "Ġholds",
  "4295": "Ġcouch.",
  "4296": "Ġenth",
  "4297": "Ġcouldnâ€™t",
  "4298": "Ġimagined",
  "4299": "Ġobedient",
  "4300": "Suddenly",
  "4301": "Ġkis",
  "4302": "Ġaftern",
  "4303": "board.",
  "4304": "Ġtwirled",
  "4305": "Ġgho",
  "4306": "ĠLily,\"",
  "4307": "Ġtears",
  "4308": "Ġstones",
  "4309": "Ġgraceful",
  "4310": "Ġlick",
  "4311": "Ġshake",
  "4312": "ĠElla",
  "4313": "uzz",
  "4314": "ates",
  "4315": "htub",
  "4316": "Ġanywhere",
  "4317": "Ġphot",
  "4318": "Ġhorn",
  "4319": "Ġaway.\"",
  "4320": "Ġrun.",
  "4321": "Ġwarned",
  "4322": "Ġcreate",
  "4323": "Ġbathtub",
  "4324": "Ġstretched",
  "4325": "Ġignorant",
  "4326": "Ġdug",
  "4327": "Ġcact",
  "4328": "Ġbetter.\"",
  "4329": "ebra",
  "4330": "Ġminutes,",
  "4331": "Ġenthus",
  "4332": "sc",
  "4333": "Ġsaw.",
  "4334": "Ġknee",
  "4335": "Ġdriving",
  "4336": "Ġmetal",
  "4337": "Ġtem",
  "4338": "Ġsandwic",
  "4339": "Ġspinning",
  "4340": "Ġturtle",
  "4341": "Ġsend",
  "4342": "Ġleop",
  "4343": "Ġmeas",
  "4344": "Ġcarp",
  "4345": "Ġwind.",
  "4346": "Ġwork,",
  "4347": "Ġspaghetti",
  "4348": "Ġuseful",
  "4349": "Ġarms.",
  "4350": "Ġfruits",
  "4351": "Ġpuppy.",
  "4352": "Ġvolc",
  "4353": "Ġtummy",
  "4354": "Ġfeet.",
  "4355": "Ġmedicine",
  "4356": "Ġtub",
  "4357": "Ġcoco",
  "4358": "Ġcoming.",
  "4359": "ĠAlice",
  "4360": "Ġshadow",
  "4361": "illie",
  "4362": "Ġnow!\"",
  "4363": "Ġsparkled",
  "4364": "aurant",
  "4365": "Ġsight",
  "4366": "Ġnail",
  "4367": "ass.",
  "4368": "Ġflour",
  "4369": "Ġzebra",
  "4370": "Ġhad.",
  "4371": "Ġfriend's",
  "4372": "ĠCl",
  "4373": "Ġtrain.",
  "4374": "Ġrestaurant",
  "4375": "Ġfurther",
  "4376": "Ġâ€œLetâ€™s",
  "4377": "Ġis.",
  "4378": "Ġsuddenly,",
  "4379": "Ġrod",
  "4380": "Ġjolly",
  "4381": "Ġeyes,",
  "4382": "\"R",
  "4383": "ĠAnna,",
  "4384": "Ġtightly",
  "4385": "Ġexper",
  "4386": "gu",
  "4387": "Ġmole",
  "4388": "Ġwrong,",
  "4389": "Ġwhisp",
  "4390": "Ġson",
  "4391": "Ġgrap",
  "4392": "Ġimpro",
  "4393": "Ġown.",
  "4394": "Ġduck.",
  "4395": "Ġstudy",
  "4396": "Ġwhisper",
  "4397": "Ġnowhere",
  "4398": "Ġsnacks",
  "4399": "Ġjeep",
  "4400": "ĠDaisy.",
  "4401": "Ġcars,",
  "4402": "Ġpaint.",
  "4403": "Ġshop.",
  "4404": "Ġmirror",
  "4405": "Ġlab",
  "4406": "ĠEverything",
  "4407": "Ġeye",
  "4408": "\"Hi,",
  "4409": "Ġchair.",
  "4410": "Ġgor",
  "4411": "Ġfinger",
  "4412": "Ġcartoon",
  "4413": "Ġtire",
  "4414": "Ġyawn",
  "4415": "Ġsof",
  "4416": "rage",
  "4417": "Ġbasket.",
  "4418": "Ġmud.",
  "4419": "Ġhipp",
  "4420": "Ġled",
  "4421": "Ġorder",
  "4422": "Ġadmire",
  "4423": "Ġdestroy",
  "4424": "ĠSm",
  "4425": "ado",
  "4426": "Ġopens",
  "4427": "Ġ\"Tom",
  "4428": "Ġguard",
  "4429": "Ġshaking",
  "4430": "Ġbored.",
  "4431": "Ġsupport",
  "4432": "Ġdiamond",
  "4433": "Ġtogether!\"",
  "4434": "Ġsearching",
  "4435": "Ġotter",
  "4436": "iest",
  "4437": "Ġblue.",
  "4438": "Ġsinging.",
  "4439": "Ġdea",
  "4440": "Ġaway!\"",
  "4441": "Ġsunflower",
  "4442": "ince",
  "4443": "Ġgira",
  "4444": "ot.",
  "4445": "Ġshelf",
  "4446": "ctop",
  "4447": "Ġcooked",
  "4448": "Ġhospital",
  "4449": "Ġtur",
  "4450": "Ġhugg",
  "4451": "Ġcame.",
  "4452": "Ġin,",
  "4453": "Ġknife",
  "4454": "Ġsometimes,",
  "4455": "ĠJoe.",
  "4456": "Ġraven",
  "4457": "Ġzip",
  "4458": "sh.",
  "4459": "Ġbig.",
  "4460": "Ġdid,",
  "4461": "ĠPaul",
  "4462": "Ġstack",
  "4463": "stri",
  "4464": "Ġcompl",
  "4465": "Ġbaby.",
  "4466": "Ġones",
  "4467": "Ġmush",
  "4468": "Ġfind.",
  "4469": "Ġselfish.",
  "4470": "Ġlater,",
  "4471": "gn",
  "4472": "ary.",
  "4473": "Ġsuper",
  "4474": "Ġsurf",
  "4475": "Ġtunnel",
  "4476": "Ġboys",
  "4477": "ĠMom,",
  "4478": "Ġneighbour",
  "4479": "Ġrelieved.",
  "4480": "Ġ\"Now",
  "4481": "Ġmiser",
  "4482": "pect",
  "4483": "Ġbase",
  "4484": "Ġoctop",
  "4485": "ĠInside,",
  "4486": "Ġpumpkin",
  "4487": "Ġproudly",
  "4488": "Ġsoft.",
  "4489": "Ġsplit",
  "4490": "Ġjungle",
  "4491": "-aid",
  "4492": "ccol",
  "4493": "ĠBear",
  "4494": "Ġsmoke",
  "4495": "Ġband-aid",
  "4496": "ses",
  "4497": "ile.",
  "4498": "Ġunpack",
  "4499": "Ġpretty!\"",
  "4500": "Ġorganized",
  "4501": "Ġtorn",
  "4502": "Spot",
  "4503": "Ġanyone.",
  "4504": "Ġmountain.",
  "4505": "\"Tom,",
  "4506": "Ġcontent",
  "4507": "Ġleft.",
  "4508": "Ġvegetables",
  "4509": "Ġkiss.",
  "4510": "There",
  "4511": "Ġsepar",
  "4512": "\"Good",
  "4513": "Ġother,",
  "4514": "Ġfilth",
  "4515": "Mary",
  "4516": "Ġbet",
  "4517": "ĠPe",
  "4518": "Ġwaff",
  "4519": "Ġreco",
  "4520": "Ġcryst",
  "4521": "Ġdistant",
  "4522": "Ġstubborn",
  "4523": "\"Mommy,",
  "4524": "shed",
  "4525": "Ġgarage.",
  "4526": "Ġbeetle",
  "4527": "Ġpigeon",
  "4528": "hood",
  "4529": "Ġdess",
  "4530": "Ġgate",
  "4531": "Ġdad's",
  "4532": "Ġgrowing",
  "4533": "ĠSoph",
  "4534": "Ġbigger.",
  "4535": "Ġafraid.",
  "4536": "Ġimpressed",
  "4537": "Ġshore",
  "4538": "uct",
  "4539": "Ġzoo.",
  "4540": "Ġhospital.",
  "4541": "aroo",
  "4542": "angaroo",
  "4543": "ĠJack's",
  "4544": "Ġfood,",
  "4545": "-cream",
  "4546": "uz",
  "4547": "Ġbrick",
  "4548": "ĠJam",
  "4549": "Ġpopular",
  "4550": "Ġterrible",
  "4551": "Ġax",
  "4552": "Ġol",
  "4553": "Ġgro",
  "4554": "Ġgoose",
  "4555": "Ġthie",
  "4556": "Ġso,",
  "4557": "Ġbackpack",
  "4558": "Ġsort",
  "4559": "Ġtired,",
  "4560": "\"Stop",
  "4561": "Ġclub",
  "4562": "Ġsmaller",
  "4563": "Ġador",
  "4564": "Ġice-cream",
  "4565": "Ġgorill",
  "4566": "ĠAmy.",
  "4567": "Ġ\"Where",
  "4568": "Ġslipp",
  "4569": "Ġpath.",
  "4570": "Ġpotato",
  "4571": "Ġpengu",
  "4572": "Ġpun",
  "4573": "ĠBilly.",
  "4574": "Ġnobody",
  "4575": "Ġcleaning",
  "4576": "Benny",
  "4577": "Ġsongs",
  "4578": "Ġsym",
  "4579": "Ġoff,",
  "4580": "ĠRose",
  "4581": "Ġlater.",
  "4582": "aked",
  "4583": "Ġspell",
  "4584": "Ġbroccol",
  "4585": "Ġbutton.",
  "4586": "Ġcord",
  "4587": "Ġdragon.",
  "4588": "Ġhigher.",
  "4589": "Ġbathroom",
  "4590": "Ġpip",
  "4591": "Ġkangaroo",
  "4592": "Ġbrave,",
  "4593": "Ġelev",
  "4594": "Ġfootball",
  "4595": "land",
  "4596": "Once,",
  "4597": "Ġtomato",
  "4598": "Ġtoast",
  "4599": "ĠJohn.",
  "4600": "Ġleg.",
  "4601": "Ġspoke",
  "4602": "Ġsucce",
  "4603": "Ġpracticed",
  "4604": "Ġavail",
  "4605": "This",
  "4606": "kes.",
  "4607": "Ġbicy",
  "4608": "Ġyou!",
  "4609": "Ġacorn",
  "4610": "Ġhumble",
  "4611": "Ġplayful",
  "4612": "Ġreward",
  "4613": "Ġsaying",
  "4614": "Ġchain",
  "4615": "Ġsuccessful",
  "4616": "Alice",
  "4617": "\"Come",
  "4618": "Ġostri",
  "4619": "ĠBet",
  "4620": "ĠMike",
  "4621": "Ġclay",
  "4622": "ions",
  "4623": "Ġdelicate",
  "4624": "Ġpressed",
  "4625": "Ġnurse",
  "4626": "ĠSh",
  "4627": "Ġbeep",
  "4628": "Ġthem.\"",
  "4629": "bol",
  "4630": "Ġcurt",
  "4631": "Ġbeg",
  "4632": "Ġarrow",
  "4633": "ctor.",
  "4634": "Ġuncle",
  "4635": "Ġnod.",
  "4636": "Ġordinary",
  "4637": "Ġbody",
  "4638": "Ġleave.",
  "4639": "Ġfaces",
  "4640": "Ġsymbol",
  "4641": "Ġcurtain",
  "4642": "cut",
  "4643": "roph",
  "4644": "Ġtug",
  "4645": "Ġboy's",
  "4646": "ĠPat",
  "4647": "\"Sorry,",
  "4648": "Ġtown,",
  "4649": "urb",
  "4650": "ĠTweety",
  "4651": "Ġnervous",
  "4652": "Ġmicroph",
  "4653": "Ġmug",
  "4654": "Ġquite",
  "4655": "ĠSara's",
  "4656": "Ġmum.",
  "4657": "Ġdisturb",
  "4658": "Ġ\"Be",
  "4659": "Ġradi",
  "4660": "Ġoy",
  "4661": "Ġbarber",
  "4662": "Ġmovie",
  "4663": "Ġfrustrated",
  "4664": "Ġdo,",
  "4665": "ifl",
  "4666": "Ġenerg",
  "4667": "Ġstrugg",
  "4668": "Ġfull.",
  "4669": "ĠTed",
  "4670": "Ġride.",
  "4671": "ĠAre",
  "4672": "Ġwhat's",
  "4673": "Ġcoffe",
  "4674": "Ġbread.",
  "4675": "appy",
  "4676": "Ġavoc",
  "4677": "ser",
  "4678": "ĠBudd",
  "4679": "Ġstarts",
  "4680": "Ġâ€œIt",
  "4681": "Ġsquirrel.",
  "4682": "heart",
  "4683": "Ġvi",
  "4684": "Ġpushing",
  "4685": "Ġfur.",
  "4686": "Ġbossy",
  "4687": "Ġcereal",
  "4688": "Ġsum",
  "4689": "ĠWhere",
  "4690": "Ġpale",
  "4691": "Ġbags",
  "4692": "Ġrude.",
  "4693": "Ġhose",
  "4694": "Ġapple.",
  "4695": "Ġconfused",
  "4696": "Ġur",
  "4697": "!\".",
  "4698": "Ġsomewhere",
  "4699": "Ġ\"Stop",
  "4700": "Ġrecogn",
  "4701": "Jim",
  "4702": "Ġhall",
  "4703": "Ġcaul",
  "4704": "ĠGive",
  "4705": "Everyone",
  "4706": "Ġmeadow.",
  "4707": "ĠSmith",
  "4708": "Ġcaulifl",
  "4709": "Ġwitch",
  "4710": "Ġcat,",
  "4711": "Ġdelicious!",
  "4712": "Ġrepe",
  "4713": "Ġchu",
  "4714": "Ġhome.\"",
  "4715": "Ġpretending",
  "4716": "Ġbarrel",
  "4717": "ater,",
  "4718": "Ġcurious,",
  "4719": "Ġset,",
  "4720": "ries.",
  "4721": "ĠBella",
  "4722": "ĠTimmy,",
  "4723": "Ġmuff",
  "4724": "Ġuniver",
  "4725": "Ġeverything.",
  "4726": "ever,",
  "4727": "Ġpirate",
  "4728": "ible.",
  "4729": "Ġmoms",
  "4730": "Ġdoing.",
  "4731": "Ġnote",
  "4732": "Ġsoon.\"",
  "4733": "Ġname?\"",
  "4734": "stair",
  "4735": "Ġland.",
  "4736": "Ġchanged",
  "4737": "Ġsleepy",
  "4738": "-year-old",
  "4739": "Ġsle",
  "4740": "Ġstarting",
  "4741": "hisk",
  "4742": "Ġforgave",
  "4743": "Ġpatch",
  "4744": "Ġright,",
  "4745": "Ġgiven",
  "4746": "Ġtreats.",
  "4747": "Ġeggs",
  "4748": "inking",
  "4749": "Ġfor.",
  "4750": "Ġswing,",
  "4751": "Ġzipp",
  "4752": "Ġbuttons",
  "4753": "Ġsudden,",
  "4754": "\"Ben,",
  "4755": "ci",
  "4756": "Ġnaughty.",
  "4757": "Ġorganize",
  "4758": "Ġghost",
  "4759": "aby",
  "4760": "Ġsent",
  "4761": "ĠToby",
  "4762": "lly,",
  "4763": "str",
  "4764": "ĠTim,",
  "4765": "Ġfair.",
  "4766": "Ġtop,",
  "4767": "ĠMandy",
  "4768": "Ġstops",
  "4769": "Ġsailor",
  "4770": "Ġgrateful.",
  "4771": "ay,",
  "4772": "Ġdidnâ€™t",
  "4773": "Ġfirework",
  "4774": "Ġsleepy.",
  "4775": "Ġfruit.",
  "4776": "ĠEllie",
  "4777": "Ġclumsy",
  "4778": "Ġspir",
  "4779": "Ġtrunk",
  "4780": "Ġpaid",
  "4781": "Ġfrustrated.",
  "4782": "Ġlear",
  "4783": "Ġ\"If",
  "4784": "Ġtriang",
  "4785": "Ġphone.",
  "4786": "Ġspoon.",
  "4787": "Ġindependent",
  "4788": "Ġpopcorn",
  "4789": "Ġscold",
  "4790": "Ġboxes",
  "4791": "\"Of",
  "4792": "Ġwelcome",
  "4793": "Ġbounced",
  "4794": "Ġspoiled",
  "4795": "Ġcharming",
  "4796": "Ġlearnt",
  "4797": "Ġgain",
  "4798": "Ġshort",
  "4799": "Ġlaughed,",
  "4800": "Ġstared",
  "4801": "Ġboring",
  "4802": "ience",
  "4803": "Ġbreakfast",
  "4804": "Ġflashlight",
  "4805": "Ġhappy.\"",
  "4806": "ĠMia,",
  "4807": "Ġdecorate",
  "4808": "Ġkay",
  "4809": "Ġgood,",
  "4810": "Ġgrandpa",
  "4811": "Ġshow.",
  "4812": "ions.",
  "4813": "Ġbrightly",
  "4814": "Ġtroub",
  "4815": "Ġzoomed",
  "4816": "Ġdelighted",
  "4817": "Ġsilver",
  "4818": "Ġbitter",
  "4819": "Ġlizard",
  "4820": "Ġpor",
  "4821": "ĠLily?\"",
  "4822": "Ġnoteb",
  "4823": "Ġneat",
  "4824": "Ġisland",
  "4825": "Ġseal",
  "4826": "Ġbirds,",
  "4827": "agg",
  "4828": "Ġhimself,",
  "4829": "Ġbubbles",
  "4830": "Ġmine.",
  "4831": "Ġbug.",
  "4832": "Ġpoint",
  "4833": "Ġrainbow.",
  "4834": "Ġfinger.",
  "4835": "cle.",
  "4836": "ooped",
  "4837": "Ġhappening.",
  "4838": "Ġ\"How",
  "4839": "Ġappeared.",
  "4840": "Ġearth",
  "4841": "iast",
  "4842": "Ġjumps",
  "4843": "Ġsweetie.",
  "4844": "Ġorganiz",
  "4845": "Ġembarrassed.",
  "4846": "Ġdisappointed",
  "4847": "Ġenthusiast",
  "4848": "ĠMo",
  "4849": "Ġman's",
  "4850": "Ġfan",
  "4851": "kelet",
  "4852": "Ġaway!",
  "4853": "ĠLet",
  "4854": "Ġunh",
  "4855": "Ġunderstand?\"",
  "4856": "Ġprov",
  "4857": "Ġmagnet",
  "4858": "inde",
  "4859": "Ġcap",
  "4860": "Ġcomb",
  "4861": "Ġpeach",
  "4862": "Ġpuddle.",
  "4863": "under",
  "4864": "Ġir",
  "4865": "Ġsnacks.",
  "4866": "hino",
  "4867": "Ġhook",
  "4868": "reci",
  "4869": "Ġcel",
  "4870": "Ġgifted",
  "4871": "Ġpot.",
  "4872": "Ġâ€œWhat",
  "4873": "Ġflexible",
  "4874": "Ġdogs",
  "4875": "ĠTV.",
  "4876": "Soon",
  "4877": "arian",
  "4878": "Ġquar",
  "4879": "Ġpair",
  "4880": "ĠJoey",
  "4881": "Ġmarched",
  "4882": "Ġapples.",
  "4883": "Ġobser",
  "4884": "Ġtomorrow.",
  "4885": "Ġmonster.",
  "4886": "Ġreinde",
  "4887": "Ġscrew",
  "4888": "Ġleopard",
  "4889": "Ġcouldn't.",
  "4890": "Ġbuzz",
  "4891": "Ġanimal.",
  "4892": "Ġamazing.",
  "4893": "Ġappreci",
  "4894": "ĠBobo",
  "4895": "Ġcrazy",
  "4896": "Ġairport",
  "4897": "Ġsecond",
  "4898": "Ġdolphin",
  "4899": "azz",
  "4900": "Ġeither",
  "4901": "Ġyach",
  "4902": "wards,",
  "4903": "Ġhunter",
  "4904": "Ġchubby",
  "4905": "ade.",
  "4906": "ucked",
  "4907": "Ġbroke.",
  "4908": "Ġhoping",
  "4909": "Ġgrandma's",
  "4910": "Ġfeathers",
  "4911": "Ġ\"Please",
  "4912": "Ġspecial,",
  "4913": "Ġtax",
  "4914": "Ġkite.",
  "4915": "Ġstirred",
  "4916": "Ġped",
  "4917": "Ġreading",
  "4918": "Ġladder.",
  "4919": "Ġsafe,",
  "4920": "Ġrolling",
  "4921": "Ġpenny",
  "4922": "Ġvalue",
  "4923": "Ġcomplain",
  "4924": "Ġrhino",
  "4925": "ĠTommy.",
  "4926": "Ġballs",
  "4927": "Ġfine",
  "4928": "Ġlooked,",
  "4929": "age,",
  "4930": "Ġcoins",
  "4931": "ĠPap",
  "4932": "Ġwalking.",
  "4933": "Ġtripped",
  "4934": "Ġcorner.",
  "4935": "Ġcrocodile",
  "4936": "ee,",
  "4937": "Ġskelet",
  "4938": "erc",
  "4939": "Ġmask",
  "4940": "ons",
  "4941": "Ġneed.",
  "4942": "Ġgrass,",
  "4943": "Ġkitchen,",
  "4944": "Ġfall.",
  "4945": "Ġidea!",
  "4946": "Ġhuman",
  "4947": "Ġribb",
  "4948": "Ġdoctor.",
  "4949": "Ġjar.",
  "4950": "Ġpear",
  "4951": "Ġbetter,",
  "4952": "Ġcookie.",
  "4953": "Ġcontent.",
  "4954": "Ġbushes.",
  "4955": "Ġtrip.",
  "4956": "Ġsurre",
  "4957": "Ġmotorcy",
  "4958": "Ġmild",
  "4959": "Ġspace",
  "4960": "Ġsuns",
  "4961": "Ġalong.",
  "4962": "Ġincl",
  "4963": "Ġoat",
  "4964": "ĠLily!\"",
  "4965": "Ġmeal",
  "4966": "Ġstuffed",
  "4967": "Ġsauce",
  "4968": "Ġorang",
  "4969": "Ġbear,",
  "4970": "Ġdolls,",
  "4971": "Ġstar.",
  "4972": "Ġempty.",
  "4973": "oe",
  "4974": "Ġlid",
  "4975": "ĠTr",
  "4976": "Ġstom",
  "4977": "ĠWhisk",
  "4978": "Ġguitar",
  "4979": "Ġingredients",
  "4980": "ing!",
  "4981": "chan",
  "4982": "Ġbranches",
  "4983": "Ġinsist",
  "4984": "Jenny",
  "4985": "Ġpand",
  "4986": "Ġcage",
  "4987": "Ġsweetheart",
  "4988": "ling.",
  "4989": "Ġhoop",
  "4990": "Ġgolf",
  "4991": "Ġvide",
  "4992": "aches",
  "4993": "Ġtalk.",
  "4994": "Ġcrane",
  "4995": "Ġpushes",
  "4996": "Ġexcitement",
  "4997": "Ġâ€“",
  "4998": "Ġallig",
  "4999": "Ġmade.",
  "5000": "Ġchal",
  "5001": "Ġboring.",
  "5002": "Ġgrabs",
  "5003": "Ġtools",
  "5004": "Ġ\"Are",
  "5005": "Ġnotebook",
  "5006": "Ġanyway.",
  "5007": "Ġtrue.",
  "5008": "angu",
  "5009": "Ġnow?\"",
  "5010": "Ġsandbox",
  "5011": "Ġshovel",
  "5012": "Ġsnowman.",
  "5013": "Ġserious",
  "5014": "Ġexclaimed.",
  "5015": "Ġbracelet",
  "5016": "Ġfle",
  "5017": "Ġlangu",
  "5018": "Ġcamp",
  "5019": "ow!",
  "5020": "Ġmechan",
  "5021": "Ġlouder",
  "5022": "Ġsafely",
  "5023": "Ġcounting",
  "5024": "Ġlively",
  "5025": "Ġleaned",
  "5026": "\"P",
  "5027": "Daisy",
  "5028": "ray",
  "5029": "Ġthunder",
  "5030": "Ġputting",
  "5031": "Ġchecked",
  "5032": "Ġsprink",
  "5033": "\"N",
  "5034": "ĠWould",
  "5035": "Ġowner.",
  "5036": "Ġpulls",
  "5037": "cast",
  "5038": "ages",
  "5039": "Ġcloset.",
  "5040": "Ġimpressive",
  "5041": "ge,",
  "5042": "ually",
  "5043": "Ġsoc",
  "5044": "Ġhadn't",
  "5045": "ĠBill",
  "5046": "Ġkindness",
  "5047": "Ġhaircut",
  "5048": "Ġpilot",
  "5049": "ĠSnow",
  "5050": "Ġbright.",
  "5051": "Ġidea,",
  "5052": "Ġroof",
  "5053": "Ġrag",
  "5054": "ĠLila.",
  "5055": "Ġspeed",
  "5056": "Ġfisher",
  "5057": "ves,",
  "5058": "Ġ\"F",
  "5059": "Ġfork",
  "5060": "Ġhock",
  "5061": "Ġbooks,",
  "5062": "Ġhe'd",
  "5063": "Ġsaus",
  "5064": "Ġlaund",
  "5065": "Ġskip",
  "5066": "Ġsquash",
  "5067": "Ġsandcast",
  "5068": "Ġhealthy.",
  "5069": "\"Are",
  "5070": "Ġwin.",
  "5071": "Ġwait.",
  "5072": "Ġfast,",
  "5073": "Ġcheese.",
  "5074": "Ġpad",
  "5075": "Ġjet",
  "5076": "Ġpepper",
  "5077": "Ġbul",
  "5078": "Ġhandle",
  "5079": "Ġsafe.\"",
  "5080": "Ġpolish",
  "5081": "unch",
  "5082": "Ġhats",
  "5083": "ĠMaria",
  "5084": "Ġriding",
  "5085": "Ġfrightened",
  "5086": "Ġnods",
  "5087": "Ġjacket",
  "5088": "aled",
  "5089": "Ġfinds",
  "5090": "\"Who",
  "5091": "Ġvisited",
  "5092": "Ġplayground.",
  "5093": "icop",
  "5094": "Ġrose",
  "5095": "agre",
  "5096": "Ġcoat.",
  "5097": "Ġother's",
  "5098": "Ġoffice",
  "5099": "Ġever!\"",
  "5100": "ation,",
  "5101": "achel",
  "5102": "Ġweather",
  "5103": "Ġbrus",
  "5104": "ĠJill.",
  "5105": "Ġmodest",
  "5106": "e!",
  "5107": "ecause",
  "5108": "Ġraft",
  "5109": "Ġdisagre",
  "5110": "Ġbugs.",
  "5111": "astic",
  "5112": "Ġfridge",
  "5113": "Ġberries",
  "5114": "Ġbe.",
  "5115": "Ġpow",
  "5116": "Ġnice.\"",
  "5117": "ait",
  "5118": "Ġ\"They",
  "5119": "Ġearly",
  "5120": "Ġquestions.",
  "5121": "Ġhelicop",
  "5122": "Ġdisappointed.",
  "5123": "Ġrefused",
  "5124": "Ġbees",
  "5125": "Ġcould,",
  "5126": "Ġback!\"",
  "5127": "Ġpoem",
  "5128": "Ġground,",
  "5129": "Ġbrothers",
  "5130": "Ġmind.",
  "5131": "Ġrever",
  "5132": "icy.",
  "5133": "Ġexerc",
  "5134": "ĠLola",
  "5135": "Ġsneak",
  "5136": "ĠGrandpa",
  "5137": "Ġviol",
  "5138": "Ġscale",
  "5139": "Ġvillage.",
  "5140": "Ġpicnic.",
  "5141": "Ġbetw",
  "5142": "Ġcone",
  "5143": "ess,",
  "5144": "chair",
  "5145": "Ġis:",
  "5146": "ĠAndy",
  "5147": "Ġintelligent",
  "5148": "Ġwhispered",
  "5149": "Ġbucket.",
  "5150": "Ġwelcomed",
  "5151": "Ġlend",
  "5152": "Ġbeam",
  "5153": "ert.",
  "5154": "Ġrope.",
  "5155": "Ġskir",
  "5156": "ĠMia's",
  "5157": "Ġdispl",
  "5158": "Ġmoment,",
  "5159": "Ġquestions",
  "5160": "Ġrhinocer",
  "5161": "seum",
  "5162": "Ġtrue",
  "5163": "Ġvend",
  "5164": "Ġhammer",
  "5165": "bul",
  "5166": "Ġdizzy",
  "5167": "Ġkingdom",
  "5168": "Ġcompassionate",
  "5169": "Ġmuseum",
  "5170": "Ġwaited.",
  "5171": "Ġappl",
  "5172": "Ġpasta",
  "5173": "Ġexpensive.",
  "5174": "Ġbaking",
  "5175": "Ġhere,",
  "5176": "Ġagreed,",
  "5177": "\"Me",
  "5178": "Ġgrown-up",
  "5179": "Ġfragile",
  "5180": "Ġenvelope",
  "5181": "Ġgloomy",
  "5182": "Ġmen",
  "5183": "ow!\"",
  "5184": "mand",
  "5185": "Ġrun,",
  "5186": "\"OK",
  "5187": "Ġarmchair",
  "5188": "Ġaer",
  "5189": "opl",
  "5190": "Ġslow.",
  "5191": "Ġmessy.",
  "5192": "Ġsalad",
  "5193": "Ġhappiness",
  "5194": "Ġbetween",
  "5195": "Ġaeropl",
  "5196": "Little",
  "5197": "Ġtwink",
  "5198": "Ġbrother,",
  "5199": "Ġbasketball",
  "5200": "Ġforward,",
  "5201": "Ġquarrel",
  "5202": "fish",
  "5203": "Ġbeautiful,",
  "5204": "â€™m",
  "5205": "Ġpersistent",
  "5206": "Ġmorning.",
  "5207": "Ġfishing",
  "5208": "Ġcricket",
  "5209": "Ġadorable",
  "5210": "ately,",
  "5211": "rosc",
  "5212": "Ġmuch,",
  "5213": "ĠGeorge",
  "5214": "Ġtrap",
  "5215": "Ġface,",
  "5216": "Ġshape",
  "5217": "Ġshirt.",
  "5218": "itch.",
  "5219": "ĠEventually,",
  "5220": "Ġwalls",
  "5221": "Ġeverywhere,",
  "5222": "ĠFluffy.",
  "5223": "Ġoctopus",
  "5224": "aff",
  "5225": "Ġmill",
  "5226": "Ġlocked",
  "5227": "Ġmonke",
  "5228": "Ġmicrosc",
  "5229": "Ġgrocer",
  "5230": "ye,",
  "5231": "Ġchirp",
  "5232": "Ġcloset",
  "5233": "Ġbandage",
  "5234": "Ġmelon",
  "5235": "Ġhide.",
  "5236": "ĠSandy",
  "5237": "quit",
  "5238": "Ġplane.",
  "5239": "Ġdizz",
  "5240": "osquit",
  "5241": "Ġthanks",
  "5242": "Ġschool,",
  "5243": "Ġpainter",
  "5244": "Ġbathroom.",
  "5245": "Ġdive",
  "5246": "Ġbedroom.",
  "5247": "Ġscreamed.",
  "5248": "e!\"",
  "5249": "Ġseeing",
  "5250": "anger.",
  "5251": "Ġswim.",
  "5252": "Ġenough.",
  "5253": "Ġspring",
  "5254": "Ġhippo",
  "5255": "Ġlip",
  "5256": "Ġmaz",
  "5257": "Ġstrip",
  "5258": "enry",
  "5259": "Ġcoin.",
  "5260": "Ġwishes",
  "5261": "Ġroared",
  "5262": "Ġafternoon",
  "5263": "Ġforth",
  "5264": "Ġnodded,",
  "5265": "Ġcamera",
  "5266": "Ġâ€œThat",
  "5267": "Ġdiscus",
  "5268": "Ġboats",
  "5269": "Ġfighting.",
  "5270": "arlie",
  "5271": "Ġturkey",
  "5272": "Ġhut",
  "5273": "Ġok",
  "5274": "Ġthis.",
  "5275": "Ġshouldn't",
  "5276": "Ġbath.",
  "5277": "Ġpassport",
  "5278": "Ġlawy",
  "5279": "Ġmushroom",
  "5280": "Ġslept",
  "5281": "Ġrunning.",
  "5282": "urnit",
  "5283": "gging",
  "5284": "Ġanswered",
  "5285": "Ġshopkeeper",
  "5286": "Ġseeds",
  "5287": "Ġhelpful.",
  "5288": "Ġalert",
  "5289": "Ġfauc",
  "5290": "Ġbeach,",
  "5291": "Ġlands",
  "5292": "Ġharsh",
  "5293": "Emma",
  "5294": "y!",
  "5295": "Ġfurnit",
  "5296": "Ġdog's",
  "5297": "Ġsoldier",
  "5298": "Ġdeaf",
  "5299": "Ġsight.",
  "5300": "Ġswung",
  "5301": "aud",
  "5302": "Ġcolor.",
  "5303": "Ġjourn",
  "5304": "Ġashamed",
  "5305": "Ġsighed.",
  "5306": "Ġtoil",
  "5307": "Ġhay",
  "5308": "Ġme,\"",
  "5309": "Ġmosquit",
  "5310": "amb",
  "5311": "Ġkey.",
  "5312": "Ġgrow.",
  "5313": "Ġbored",
  "5314": "Ġceil",
  "5315": "Ġtask",
  "5316": "Ġdear",
  "5317": "Ġgoal",
  "5318": "Ġready,",
  "5319": "Ġheaded",
  "5320": "Ġambul",
  "5321": "eterin",
  "5322": "ĠGrace",
  "5323": "Ġcarrots.",
  "5324": "Ġinteresting.",
  "5325": "Ġumbrella",
  "5326": "dge.",
  "5327": "Ġflute",
  "5328": "ĠPapa",
  "5329": "ately",
  "5330": "imne",
  "5331": "Ġveterin",
  "5332": "Ġbreez",
  "5333": "Ġmarket",
  "5334": "Ġpresent.",
  "5335": "ĠUn",
  "5336": "Ġdonâ€™t",
  "5337": "Ġpeek",
  "5338": "Ġskin",
  "5339": "Ġskull",
  "5340": "Ġdoll,",
  "5341": "Ġloved.",
  "5342": "Ġfar.",
  "5343": "\"Why",
  "5344": "Ġdead",
  "5345": "Ġbefore,",
  "5346": "Ġgentle.",
  "5347": "Ġclapping",
  "5348": "Ġenthusiastic",
  "5349": "Ġdiscuss",
  "5350": "ab",
  "5351": "lid",
  "5352": "ment.",
  "5353": "Ġwaving",
  "5354": "Ġstaff",
  "5355": "Ġdays,",
  "5356": "Ġchimne",
  "5357": "Ġbright,",
  "5358": "Ġmatt",
  "5359": "Ġgolden",
  "5360": "Ġattractive",
  "5361": "Ġchance",
  "5362": "Ġswitch",
  "5363": "Ġolder",
  "5364": "Ġhow.",
  "5365": "Ġskill",
  "5366": "Ġbeauty",
  "5367": "Ġpinch",
  "5368": "Ġ\"Tom,",
  "5369": "sit",
  "5370": "ash.",
  "5371": "Ġcome.",
  "5372": "Ġcub",
  "5373": "Ġlistening",
  "5374": "Ġways",
  "5375": "ĠToday",
  "5376": "ĠTweetie",
  "5377": "Ġcelebrate",
  "5378": "Ġcrystal",
  "5379": "Ġelevator",
  "5380": "Ch",
  "5381": "chie",
  "5382": "Ġholid",
  "5383": "Ġcup.",
  "5384": "\"Where",
  "5385": "Ġmagaz",
  "5386": "Ġdinner,",
  "5387": "Ġballoons",
  "5388": "Ġdrops",
  "5389": "ano.",
  "5390": "Ġtime.\"",
  "5391": "fully",
  "5392": "Ġrang",
  "5393": "used",
  "5394": "Ġstrong,",
  "5395": "Ġsounds.",
  "5396": "Ġcreatures",
  "5397": "Ġsalt",
  "5398": "Ġbaseball",
  "5399": "aggie",
  "5400": "Ġpony",
  "5401": "Ġman,",
  "5402": "Ġstronger",
  "5403": "Ġplants.",
  "5404": "Ġcourage",
  "5405": "Ġshakes",
  "5406": "Ġreve",
  "5407": "Ġstud",
  "5408": "Ġmitten",
  "5409": "Ġgate.",
  "5410": "Ġknot",
  "5411": "ĠInste",
  "5412": "Ġstreng",
  "5413": "se.\"",
  "5414": "Ġmop",
  "5415": "Ġcareless",
  "5416": "Ġbehind.",
  "5417": "Ġlights",
  "5418": "Ġlaughs.",
  "5419": "Ġdrink.",
  "5420": "Ġshells",
  "5421": "Ġspeak",
  "5422": "Ġflies",
  "5423": "Ġharder",
  "5424": "Ġâ€œYou",
  "5425": "Ġinvest",
  "5426": "Ġwhistle.",
  "5427": "Ġmachine.",
  "5428": "rod",
  "5429": "Ġyours.",
  "5430": "Ġintrod",
  "5431": "Ġplease.",
  "5432": "Ġcocoa",
  "5433": "Ġthief",
  "5434": "Ġlaser",
  "5435": "Ġhalf",
  "5436": "Ġonion",
  "5437": "Ġtimes",
  "5438": "Ġmarry",
  "5439": "Ġsprayed",
  "5440": "Ġcomputer",
  "5441": "Ġcry,",
  "5442": "Ġroar.",
  "5443": "Ġprevent",
  "5444": "Ġattach",
  "5445": "Ġgorilla",
  "5446": "Ġapplaud",
  "5447": "Ġinvestig",
  "5448": "Ġhim!",
  "5449": "robe",
  "5450": "Ġcandle",
  "5451": "Ġhorse.",
  "5452": "Ġalligator",
  "5453": "Ġlawn",
  "5454": "Ġnumbers",
  "5455": "Ġavailable",
  "5456": "Ġmama",
  "5457": "unk.",
  "5458": "Ġstove",
  "5459": "Ġleaf.",
  "5460": "Ġmath",
  "5461": "Ġcushion",
  "5462": "Ġsurrender",
  "5463": "Ġgear",
  "5464": "asis",
  "5465": "Ġworth",
  "5466": "ĠRed",
  "5467": "Ġfirepl",
  "5468": "Ġsurround",
  "5469": "Ġart",
  "5470": "asher",
  "5471": "Ġcozy.",
  "5472": "Ġchang",
  "5473": "Ġostrich",
  "5474": "washer",
  "5475": "ement",
  "5476": "Ġtowers",
  "5477": "Ġhelmet",
  "5478": "Ġdisplay",
  "5479": "ĠWill",
  "5480": "Ġknow,\"",
  "5481": "Ġsung",
  "5482": "Ġmessage",
  "5483": "Ġfox.",
  "5484": "Together",
  "5485": "Ġdishwasher",
  "5486": "Ġyogurt",
  "5487": "Ġharmless",
  "5488": "Ġfive",
  "5489": "ery.",
  "5490": "Ġyou'll",
  "5491": "Ġfog",
  "5492": "Ġsteam",
  "5493": "ĠOr",
  "5494": "Ġanswered,",
  "5495": "Ġtrumpet",
  "5496": "Ġaut",
  "5497": "Ġwool",
  "5498": "Ġinf",
  "5499": "Ġweep",
  "5500": "unately,",
  "5501": "Ġparty,",
  "5502": "Ġhill,",
  "5503": "Ġbreak.",
  "5504": "ĠBuddy",
  "5505": "Ġspirit",
  "5506": "Ġpine",
  "5507": "Ġoasis",
  "5508": "Ġstuck.",
  "5509": "Ġenvious",
  "5510": "Ġcelebrated",
  "5511": "lass",
  "5512": "te",
  "5513": "Ġcapt",
  "5514": "Ġ\"Who",
  "5515": "Ġfireman",
  "5516": "Ġteacher.",
  "5517": "Ġengine",
  "5518": "ision",
  "5519": "Ġclimb.",
  "5520": "Ġbranches.",
  "5521": "Ġlate",
  "5522": "Ġyield",
  "5523": "Ġrice",
  "5524": "Ġvoice,",
  "5525": "Ġscream.",
  "5526": "Ġsecret.",
  "5527": "Ġfilm",
  "5528": "Ġcactus",
  "5529": "Ġsir",
  "5530": "Ġsmile,",
  "5531": "akes.",
  "5532": "Ġworked.",
  "5533": "Ġperfect.",
  "5534": "medi",
  "5535": "Ġignored",
  "5536": "Ġrubber",
  "5537": "Ġwant.",
  "5538": "Ġspear",
  "5539": "Ġnovel",
  "5540": "Ġflapped",
  "5541": "Ġsticker",
  "5542": "ĠLucy's",
  "5543": "Ġhere.\"",
  "5544": "Ġbusy.",
  "5545": "Ġhanging",
  "5546": "Ġbow.",
  "5547": "Ġseas",
  "5548": "Ġnames",
  "5549": "Ġcage.",
  "5550": "Ġcob",
  "5551": "Ġloudly",
  "5552": "Ġtidy.",
  "5553": "Ġdisappeared",
  "5554": "ĠBunny",
  "5555": "Ġalar",
  "5556": "Ġexciting.",
  "5557": "ĠSara,",
  "5558": "Ġsleeping",
  "5559": "Ġneck.",
  "5560": "Ġfearful",
  "5561": "Ġeither.",
  "5562": "Ġplayed,",
  "5563": "Ġward",
  "5564": "Ġgreed",
  "5565": "Ġvisit.",
  "5566": "Ġlegs.",
  "5567": "Ġdisappeared.",
  "5568": "ning,",
  "5569": "web",
  "5570": "ines",
  "5571": "Ġfrom.",
  "5572": "ĠPolly",
  "5573": "Ġbuilding.",
  "5574": "Ġbarking",
  "5575": "Ġcauliflower",
  "5576": "Ġpra",
  "5577": "ĠMillie",
  "5578": "Ġneedle",
  "5579": "Ġshine",
  "5580": "Ġloudly.",
  "5581": "Ġcreated",
  "5582": "Ġsign.",
  "5583": "Ġshrimp",
  "5584": "Ġslides",
  "5585": "Ġfriendship",
  "5586": "night",
  "5587": "Ġtoo,\"",
  "5588": "Ġknown",
  "5589": "Ġbelongs",
  "5590": "\"You're",
  "5591": "Ġhurry",
  "5592": "Ġcompetitive",
  "5593": "Ġpastel",
  "5594": "Ġletters",
  "5595": "Ġfeathers.",
  "5596": "Ġinsect",
  "5597": "Ġrescue",
  "5598": "Ġten",
  "5599": "Ġgaz",
  "5600": "Ġgrandp",
  "5601": "Ġsack.",
  "5602": "Ġnervous.",
  "5603": "hic",
  "5604": "Ġnet.",
  "5605": "Ġris",
  "5606": "Ġplate.",
  "5607": "Ġsomething,",
  "5608": "Ġdesk",
  "5609": "Ġbreakfast.",
  "5610": "Ġsuperher",
  "5611": "Ġcity",
  "5612": "Ġgone,",
  "5613": "Ġrequ",
  "5614": "Ġloop",
  "5615": "Ġme!",
  "5616": "Ġmommy's",
  "5617": "Ġquack",
  "5618": "Ġthread",
  "5619": "Ġappro",
  "5620": "Ġdreams",
  "5621": "Ġ\"Sorry,",
  "5622": "Ġvehic",
  "5623": "Ġmustache",
  "5624": "Ġwheat",
  "5625": "Ġescape",
  "5626": "Ġble",
  "5627": "Ġline.",
  "5628": "Ġpoke",
  "5629": "Ġhouses",
  "5630": "Ġtrucks.",
  "5631": "Ġhopes",
  "5632": "Ġaccepted",
  "5633": "Ġcobweb",
  "5634": "obb",
  "5635": "Ġwigg",
  "5636": "ĠJerry",
  "5637": "Ġran,",
  "5638": "Ġfingers",
  "5639": "ater.",
  "5640": "ĠJul",
  "5641": "ople",
  "5642": "Ġfactor",
  "5643": "Ġsun,",
  "5644": "Ġchest.",
  "5645": "ĠSte",
  "5646": "Ġig",
  "5647": "Ġred,",
  "5648": "Ġchur",
  "5649": "ĠRachel",
  "5650": "Ġcries",
  "5651": "Ġcupboard",
  "5652": "Ġthrows",
  "5653": "Ġapr",
  "5654": "Ġapart",
  "5655": "Ġsunglass",
  "5656": "Ġigloo",
  "5657": "inked",
  "5658": "Ġended",
  "5659": "Ġsmells",
  "5660": "Ġblowing",
  "5661": "Ġstro",
  "5662": "Ġexcitedly",
  "5663": "Ġskin.",
  "5664": "Ġbelt",
  "5665": "Ġducks.",
  "5666": "Ġtears.",
  "5667": "Ġcrossed",
  "5668": "Ġpanda",
  "5669": "Ġmechanic",
  "5670": "Ġvendor",
  "5671": "me.",
  "5672": "Ġprun",
  "5673": "Ġfish,",
  "5674": "Anna,",
  "5675": "Ġminer",
  "5676": "Ġsplashing",
  "5677": "Ġfisherman",
  "5678": "us.",
  "5679": "Ġclimbing",
  "5680": "Ġgreen.",
  "5681": "Ġwindows",
  "5682": "Ġscreen",
  "5683": "Ġregret",
  "5684": "Ġsucceed",
  "5685": "Ġplastic",
  "5686": "Ġanch",
  "5687": "Ġairpl",
  "5688": "Ġanywhere.",
  "5689": "ate,",
  "5690": "Ġgo.\"",
  "5691": "Ġpond,",
  "5692": "mend",
  "5693": "rm",
  "5694": "w!\"",
  "5695": "Ġgently.",
  "5696": "Ġshrink",
  "5697": "Ġminutes",
  "5698": "Ġhappiness.",
  "5699": "Ġtelev",
  "5700": "Ġscolded",
  "5701": "Ġfought",
  "5702": "llie",
  "5703": "Ġsnake.",
  "5704": "Ġglo",
  "5705": "Ġswimm",
  "5706": "Ġforgotten",
  "5707": "Ġcollar",
  "5708": "Ġsqueezed",
  "5709": "Ġglowing",
  "5710": "Ġphoto",
  "5711": "Ġiron",
  "5712": "Ġbother",
  "5713": "omob",
  "5714": "Ġthere?\"",
  "5715": "Ġclaw",
  "5716": "Ġbookc",
  "5717": "Ġthumb",
  "5718": "Ġstone.",
  "5719": "Ġones.",
  "5720": "commend",
  "5721": "Ġwelcome.",
  "5722": "Ġincre",
  "5723": "Ġpuzzle.",
  "5724": "Ġskeleton",
  "5725": "Ġautomob",
  "5726": "Ġus?\"",
  "5727": "Ġsuff",
  "5728": "Ġtherm",
  "5729": "Ġrecommend",
  "5730": "Ġscarf.",
  "5731": "ips",
  "5732": "Ġdelight.",
  "5733": "Ġmeant,",
  "5734": "Ġpadd",
  "5735": "ĠBaby",
  "5736": "ife.",
  "5737": "Ġhand,",
  "5738": "Ġswinging",
  "5739": "Ġthrowing",
  "5740": "Ġknob",
  "5741": "Ġtray",
  "5742": "Ġcreative.",
  "5743": "Ġjudge",
  "5744": "Ġoyster",
  "5745": "Ġsummer",
  "5746": "Ġlearn.",
  "5747": "Ġstopped,",
  "5748": "Ġcrow",
  "5749": "\"This",
  "5750": "Ġcardboard",
  "5751": "Ġstatue",
  "5752": "Ġimpatient",
  "5753": "Ġseat.",
  "5754": "Ġvac",
  "5755": "Ġwipe",
  "5756": "'.",
  "5757": "Ġtucked",
  "5758": "ĠHelp",
  "5759": "Ġleash",
  "5760": "ĠLook",
  "5761": "Ġgrin",
  "5762": "Ġraz",
  "5763": "Ġcute.",
  "5764": "ĠToday,",
  "5765": "irst,",
  "5766": "Ġcircles",
  "5767": "ĠBrownie",
  "5768": "Ġreindeer",
  "5769": "Ġdizzy.",
  "5770": "nam",
  "5771": "Ġset.",
  "5772": "Ġitâ€™s",
  "5773": "Ġbeak.",
  "5774": "Ġkitt",
  "5775": "Ġtwo,",
  "5776": "Ġhere!\"",
  "5777": "Ġdrawer",
  "5778": "Ġwoods,",
  "5779": "Sammy",
  "5780": "ĠGod",
  "5781": "Ġstraight",
  "5782": "Ġthirsty.",
  "5783": "Grandma",
  "5784": "Ġblinked",
  "5785": "Ġshout.",
  "5786": "Ġfell.",
  "5787": "Ġleft,",
  "5788": "Ġnapkin",
  "5789": "Ġcollected",
  "5790": "Ġimagine",
  "5791": "Ġapologized",
  "5792": "Ġscr",
  "5793": "ĠLilly",
  "5794": "Ġdress,",
  "5795": "Ġrocket.",
  "5796": "Ġsafet",
  "5797": "Ġpatient.",
  "5798": "Ġswings,",
  "5799": "Ġcool!\"",
  "5800": "Ġ\"Hey,",
  "5801": "Ġrefre",
  "5802": "Ġthemselves",
  "5803": "Ġbulb",
  "5804": "Ġroot",
  "5805": "Ġ\"Timmy",
  "5806": "Ġwalk,",
  "5807": "Ġhat,",
  "5808": "Ġgasped",
  "5809": "Ġguilty",
  "5810": "ison",
  "5811": "Ġblue,",
  "5812": "Ġbrighter",
  "5813": "Ġtoday,",
  "5814": "oor",
  "5815": "Ġunif",
  "5816": "Ġpain.",
  "5817": "Ġexploring.",
  "5818": "Ġears",
  "5819": "Ġspending",
  "5820": "ich.",
  "5821": "mm",
  "5822": "Ġexpect",
  "5823": "Ġcable",
  "5824": "Ġvine",
  "5825": "Ġdog!\"",
  "5826": "Ġpackage",
  "5827": "Ġhelicopter",
  "5828": "Mandy",
  "5829": "Ġtent.",
  "5830": "Ġsince",
  "5831": "ement.",
  "5832": "Ġdemand",
  "5833": "Ġwags",
  "5834": "ĠEmma.",
  "5835": "Ġtemp",
  "5836": "Ġvolcano",
  "5837": "ĠWhiskers",
  "5838": "Ġuniform",
  "5839": "ory",
  "5840": "Ġlaught",
  "5841": "Ġtrash",
  "5842": "Ġshoe",
  "5843": "Ġplace,",
  "5844": "Ġants",
  "5845": "Ġmistake",
  "5846": "Ġcell",
  "5847": "Ġhave.",
  "5848": "Ġkneel",
  "5849": "Ġread.",
  "5850": "Ġgame,",
  "5851": "Ġteleph",
  "5852": "Together,",
  "5853": "Ġlike.",
  "5854": "Ġearl",
  "5855": "Ġvanished",
  "5856": "Ġmirror.",
  "5857": "Ġbone.",
  "5858": "ĠTh",
  "5859": "Ġsheet",
  "5860": "Ġvase.",
  "5861": "Ġneeded.",
  "5862": "Ġbeha",
  "5863": "Ġshocked",
  "5864": "Ġseparate",
  "5865": "Ġ\"Timmy,",
  "5866": "tim",
  "5867": "ward.",
  "5868": "Ġweigh",
  "5869": "Ġlie",
  "5870": "Ġpopped",
  "5871": "Ġcats",
  "5872": "Ġquiz",
  "5873": "Ġshiny,",
  "5874": "Ġletting",
  "5875": "Ġsweater",
  "5876": "Ġadvice",
  "5877": "Ġoak",
  "5878": "Ġitch",
  "5879": "Ġher!",
  "5880": "amp.",
  "5881": "Ġreaches",
  "5882": "ĠLily.\"",
  "5883": "Ġlouder.",
  "5884": "Ġus!\"",
  "5885": "Ġtrucks",
  "5886": "Ġears.",
  "5887": "Ġsandwich.",
  "5888": "Ġsteps",
  "5889": "Ġbridge.",
  "5890": "Ġcarpet",
  "5891": "Ġflea",
  "5892": "elcome",
  "5893": "ĠJess",
  "5894": "Ġhelp!\"",
  "5895": "Ġprop",
  "5896": "Ġagain?\"",
  "5897": "uckily,",
  "5898": "Ġposs",
  "5899": "Ġornam",
  "5900": "Ġperfu",
  "5901": "Ġsoft,",
  "5902": "Ġprepar",
  "5903": "Ġmissing",
  "5904": "Ġharb",
  "5905": "Ġvegetables.",
  "5906": "Ġbouncing",
  "5907": "Ġstrawberry",
  "5908": "ĠSophie",
  "5909": "ask.",
  "5910": "Ġadventure!",
  "5911": "Ġtrave",
  "5912": "Ġfloat",
  "5913": "Ġfirst.\"",
  "5914": "Ġrestless",
  "5915": "Ġplanet",
  "5916": "Inside",
  "5917": "Ġdestin",
  "5918": "Ġsandwiches",
  "5919": "Ġaxe",
  "5920": "Ġhedge",
  "5921": "Ġport",
  "5922": "Ġsaving",
  "5923": "Ġkitty",
  "5924": "Ġsca",
  "5925": "Ġcared",
  "5926": "Ġhardly",
  "5927": "Ġhurts",
  "5928": "Ġlightning",
  "5929": "Ġfalling",
  "5930": "Ġlaughs",
  "5931": "Later,",
  "5932": "pare",
  "5933": "Ġballs.",
  "5934": "Ġtrop",
  "5935": "Ġmoon.",
  "5936": "Ġkindness.",
  "5937": "Ġfiref",
  "5938": "Ġherself,",
  "5939": "Ġenter",
  "5940": "Ġgun.",
  "5941": "Ġcrawling",
  "5942": "act",
  "5943": "Ġprett",
  "5944": "Ġwatch.",
  "5945": "Ġdoing?",
  "5946": "Ġmixer",
  "5947": "Ġwish.",
  "5948": "Ann",
  "5949": "Ġitem",
  "5950": "Ġ\"Well,",
  "5951": "Ġstring.",
  "5952": "Ġturn.",
  "5953": "ĠNext",
  "5954": "Ġprepare",
  "5955": "Ġinfant",
  "5956": "Ġbeak",
  "5957": "icer",
  "5958": "ĠEach",
  "5959": "Ġpoked",
  "5960": "Ġquit",
  "5961": "Ġimmedi",
  "5962": "Ġstill.",
  "5963": "Ġbefore!",
  "5964": "Ġpiano",
  "5965": "Ġcloth.",
  "5966": "Ġtrusted",
  "5967": "Ġlibrary",
  "5968": "Ġuncomfortable",
  "5969": "ĠClara",
  "5970": "ium",
  "5971": "Ġtong",
  "5972": "Ġdire",
  "5973": "Ġothers,",
  "5974": "ĠJack,",
  "5975": "Ġcooler",
  "5976": "Ġbell.",
  "5977": "Ġhockey",
  "5978": "Ġwing.",
  "5979": "Ġinstr",
  "5980": "una",
  "5981": "Ġmeat",
  "5982": "Ġraise",
  "5983": "Ġhappening",
  "5984": "Ġstronger.",
  "5985": "Ġshouts.",
  "5986": "ult.",
  "5987": "land.",
  "5988": "Ġflutter",
  "5989": "Ġsniffed",
  "5990": "Ġtaxi",
  "5991": "Ġlime",
  "5992": "Ġâ€œYes,",
  "5993": "Ġfollowing",
  "5994": "Ġyummy!",
  "5995": "fortunately,",
  "5996": "Ġradish",
  "5997": "Ġrecei",
  "5998": "Ġcity.",
  "5999": "ĠJan",
  "6000": "Ġeating,",
  "6001": "Ġstickers",
  "6002": "Ġentered",
  "6003": "Ġgarage",
  "6004": "Ġtrophy",
  "6005": "Ġtut",
  "6006": "Ġcards",
  "6007": "Ġweap",
  "6008": "ĠIts",
  "6009": "Ġteas",
  "6010": "Ġframe",
  "6011": "Ġfollows",
  "6012": "Ġpoints",
  "6013": "Ġfallen",
  "6014": "Ġignore",
  "6015": "Ġpurse",
  "6016": "Ġscooter",
  "6017": "Ġmosquito",
  "6018": "Ġoil",
  "6019": "ices",
  "6020": "Ġcolours",
  "6021": "Ġkeeping",
  "6022": "Ġbarn.",
  "6023": "Ġanxious",
  "6024": "Ġweak.",
  "6025": "Ġremove",
  "6026": "Ġdressed",
  "6027": "Ġcountry",
  "6028": "Ġhugged.",
  "6029": "Ġavocado",
  "6030": "ib",
  "6031": "Ġvest",
  "6032": "Ġhands,",
  "6033": "Ġadventure,",
  "6034": "Ġsteak",
  "6035": "Ġtuna",
  "6036": "Ġsupply",
  "6037": "Ġthought.",
  "6038": "Ġsnap",
  "6039": "Ġjump,",
  "6040": "ampoo",
  "6041": "Ġwheels",
  "6042": "Ġwandered",
  "6043": "ĠOK?\"",
  "6044": "Ġthemselves.",
  "6045": "Ġimprove",
  "6046": "r.",
  "6047": "Ġfu",
  "6048": "Ġholes",
  "6049": "Ġoffice.",
  "6050": "Ġ\"Let",
  "6051": "Ġbutterflies",
  "6052": "ube",
  "6053": "Ġdar",
  "6054": "Ġdried",
  "6055": "Ġow,",
  "6056": "Ġbody.",
  "6057": "Ġelephant.",
  "6058": "Ġ\"There",
  "6059": "Ġrhinoceros",
  "6060": "Ġveterinarian",
  "6061": "Qu",
  "6062": "time",
  "6063": "Ġscooped",
  "6064": "Ġjealous.",
  "6065": "Ġbroccoli",
  "6066": "Ġpraised",
  "6067": "Ġbin",
  "6068": "Ġwear.",
  "6069": "Ġbalanc",
  "6070": "Ġgasp",
  "6071": "Ġnature",
  "6072": "Ġahead",
  "6073": "Ġhive",
  "6074": "Ġpist",
  "6075": "ĠBuzz",
  "6076": "Ġagain!\"",
  "6077": "ucky.",
  "6078": "Ġnicely.",
  "6079": "Ġangry,",
  "6080": "Ġpeople's",
  "6081": "Ġending",
  "6082": "Ġclothes,",
  "6083": "Ġattic.",
  "6084": "Ġsettled",
  "6085": "Ġbicycle",
  "6086": "Ġpistol",
  "6087": "ĠTony",
  "6088": "lend",
  "6089": "Ġeaten",
  "6090": "Ġthis,",
  "6091": "uzzy",
  "6092": "hell",
  "6093": "Ġshy.",
  "6094": "Ġseek.",
  "6095": "ĠPlease,",
  "6096": "Ġcake,",
  "6097": "Ġfoot.",
  "6098": "Ġburned",
  "6099": "Ġambulance",
  "6100": "ero",
  "6101": "ĠWho",
  "6102": "Ġdogs.",
  "6103": "Ġjump.",
  "6104": "Ġcube",
  "6105": "Ġsafely.",
  "6106": "Ġbrothers.",
  "6107": "\"Oh,",
  "6108": "Ġnuts",
  "6109": "Ġdisgusting",
  "6110": "Ġmass",
  "6111": "Ġwe'll",
  "6112": "Ġcomet",
  "6113": "Ġlake,",
  "6114": "Ġshrug",
  "6115": "Ġstairs",
  "6116": "Ġfridge.",
  "6117": "Ġcomplete",
  "6118": "iction",
  "6119": "Ġkayak",
  "6120": "Ġskirt",
  "6121": "Next",
  "6122": "Ġsimp",
  "6123": "Ġred.",
  "6124": "ame.",
  "6125": "Ġwere.",
  "6126": "Ġcalend",
  "6127": "Ġlook,",
  "6128": "Ġ\"Yes!",
  "6129": "Ġpants",
  "6130": "Ġshampoo",
  "6131": "Ġvroom",
  "6132": "Ġsmooth.",
  "6133": "Ġinclud",
  "6134": "Ġdirect",
  "6135": "fore",
  "6136": "Ġring.",
  "6137": "Ġcase",
  "6138": "Ġmule",
  "6139": "ĠDanny",
  "6140": "Ġmyself",
  "6141": "Ġfixed.",
  "6142": "Ġparade",
  "6143": "ĠAnnie",
  "6144": "Ġshelter",
  "6145": "Ġscattered",
  "6146": "Ġunhapp",
  "6147": "Thank",
  "6148": "ues",
  "6149": "Ġachie",
  "6150": "Ġdigg",
  "6151": "Ġdiction",
  "6152": "Ġlives",
  "6153": "Ġscary,",
  "6154": "Ġvall",
  "6155": "bbled",
  "6156": "Ġglove",
  "6157": "Ġdifferen",
  "6158": "Ġbehave",
  "6159": "Ġfairy.",
  "6160": "Ġmother.",
  "6161": "Ġsparkling",
  "6162": "Ġwinter",
  "6163": "Ġmedal",
  "6164": "Ġserve",
  "6165": "ĠHarry",
  "6166": "Ġâ€œO",
  "6167": "Ġnecklace.",
  "6168": "Ġeraser",
  "6169": "Ġyacht",
  "6170": "big",
  "6171": "ges",
  "6172": "Ġtube",
  "6173": "ĠHere,",
  "6174": "Ġbee.",
  "6175": "Ġ\"C",
  "6176": "osed",
  "6177": "Ġburied",
  "6178": "Ġtrail",
  "6179": "Ġfloating",
  "6180": "Ġrestore",
  "6181": "Ġmedicine.",
  "6182": "Ġcelery",
  "6183": "'ve",
  "6184": "Ġwiz",
  "6185": "Ġisland.",
  "6186": "Ġ\"Please,",
  "6187": "Ġmodel",
  "6188": "Ġjazz",
  "6189": "Ġround.",
  "6190": "Ġcircles.",
  "6191": "Ġhours,",
  "6192": "Ġmonkey.",
  "6193": "With",
  "6194": "ring",
  "6195": "Ġherb",
  "6196": "Ġequ",
  "6197": "Ġstad",
  "6198": "Ġisn't",
  "6199": "Ġyellow.",
  "6200": "Ġdecoration",
  "6201": "Ġunderstood.",
  "6202": "Ġticket",
  "6203": "Ġtruth.",
  "6204": "Ġapproached",
  "6205": "Ġimmediately",
  "6206": "Ġstadium",
  "6207": "Ġreef",
  "6208": "Ġclever.",
  "6209": "ĠKate",
  "6210": "Ġsailing",
  "6211": "Ġamazing!",
  "6212": "ĠMary.",
  "6213": "Ġcaptain",
  "6214": "Ġwashing",
  "6215": "Ġhappier",
  "6216": "Ġback.\"",
  "6217": "Ġending.",
  "6218": "Ġcompan",
  "6219": "Ġcame,",
  "6220": "Ġbury",
  "6221": "Ġjellyfish",
  "6222": "Ġfilthy",
  "6223": "Ġrepeat",
  "6224": "Ġlawyer",
  "6225": "\"Lily,",
  "6226": "Fin",
  "6227": "Jen",
  "6228": "Ġsty",
  "6229": "ĠJon",
  "6230": "ucture",
  "6231": "Ġstructure",
  "6232": "Ġrabbit,",
  "6233": "Ġattention",
  "6234": "Ġpermiss",
  "6235": "bigail",
  "6236": "Eventually,",
  "6237": "Peter",
  "6238": "Ġfest",
  "6239": "ĠCo",
  "6240": "Ġglad.",
  "6241": "riger",
  "6242": "ator.",
  "6243": "ĠMim",
  "6244": "Ġbab",
  "6245": "ĠKat",
  "6246": "Ġattic",
  "6247": "Ġrefriger",
  "6248": "Ġuncomfortable.",
  "6249": "ishing",
  "6250": "Ġplease,",
  "6251": "Sam,",
  "6252": "Ġrobot.",
  "6253": "Ġbubbles.",
  "6254": "men",
  "6255": "Ġsub",
  "6256": "anna",
  "6257": "Ġthat!\"",
  "6258": "Ġup.\"",
  "6259": "Ġsomed",
  "6260": "Ġchore",
  "6261": "ĠMommy!",
  "6262": "Ġdreams.",
  "6263": "Ġinvite",
  "6264": "ĠBefore",
  "6265": "Ġcuddled",
  "6266": "Ġwaves.",
  "6267": "Ġone.\"",
  "6268": "Ġday.\"",
  "6269": "Ġup!",
  "6270": "Ġpaper,",
  "6271": "Ġfroz",
  "6272": "Ġowl.",
  "6273": "Ġdetermin",
  "6274": "Ġlicks",
  "6275": "Ġcoffee",
  "6276": "s?\"",
  "6277": "Ġshe'd",
  "6278": "ĠMiss",
  "6279": "Ġcareful.\"",
  "6280": "Ġmarket.",
  "6281": "Ġeagerly",
  "6282": "Ġsandbox.",
  "6283": "Ġfestiv",
  "6284": "Ġalr",
  "6285": "Ġhurting",
  "6286": "Ġruined.",
  "6287": "ead",
  "6288": "uby",
  "6289": "Ġdays.",
  "6290": "Ġâ€œD",
  "6291": "Ġpromise.",
  "6292": "Ġmint",
  "6293": "Ġdiary",
  "6294": "Ġscreen.",
  "6295": "use",
  "6296": "Ġwife",
  "6297": "Ġsport",
  "6298": "Ġthem?\"",
  "6299": "Ġblood",
  "6300": "Ġnicely",
  "6301": "Ġstove.",
  "6302": "â€™re",
  "6303": "Ġthings.\"",
  "6304": "Ġboat,",
  "6305": "Ġdark,",
  "6306": "Ġcrunch",
  "6307": "Ġkids,",
  "6308": "Ġfloated",
  "6309": "Ġshooting",
  "6310": "Ġdessert",
  "6311": "ĠMolly.",
  "6312": "asc",
  "6313": "Ġsadly",
  "6314": "ĠDan",
  "6315": "aces",
  "6316": "Ġcontain",
  "6317": "Ġrules.",
  "6318": "\"Ow,",
  "6319": "Ġ\"Me",
  "6320": "Ġpolite.",
  "6321": "ĠMittens.",
  "6322": "Ġguitar.",
  "6323": "Ġtriangle",
  "6324": "Ġchalk",
  "6325": "Ġsoccer",
  "6326": "Ġpowder",
  "6327": "Ġbeamed",
  "6328": "Ġbill",
  "6329": "ĠSu",
  "6330": "Ġshed",
  "6331": "Ġsoil",
  "6332": "Ġhappened,",
  "6333": "Ġdelay",
  "6334": "Ġbelieved",
  "6335": "Ġbottle.",
  "6336": "Ġbreathe",
  "6337": "Ġbumped",
  "6338": "Ġpenguin",
  "6339": "Ġradio",
  "6340": "Ġâ€œItâ€™s",
  "6341": "Ġribbon",
  "6342": "led,",
  "6343": "Ġhorn.",
  "6344": "Ġuse.",
  "6345": "Tim's",
  "6346": "Ġsque",
  "6347": "Ġhungry,",
  "6348": "Ġcarrot.",
  "6349": "ĠRex.",
  "6350": "Ġsqueeze",
  "6351": "Ġscratch",
  "6352": "Ġstage",
  "6353": "ĠMay",
  "6354": "Ġwallet",
  "6355": "Ġroof.",
  "6356": "Ġcostume",
  "6357": "Ġstrength",
  "6358": "Lisa",
  "6359": "ses.",
  "6360": "ĠV",
  "6361": "Ġbang",
  "6362": "Ġmention",
  "6363": "raged",
  "6364": "â€™ll",
  "6365": "Ġgoodbye,",
  "6366": "Ġpeaceful.",
  "6367": "Ġcalm.",
  "6368": "Ġteaching",
  "6369": "Ġmiserable",
  "6370": "Ġtore",
  "6371": "Ġdare",
  "6372": "Ġ\"I'll",
  "6373": "Ġbathe",
  "6374": "\"Hi",
  "6375": "Ġplant.",
  "6376": "Ġbookshe",
  "6377": "ĠGrandma.",
  "6378": "Ġmotorcycle",
  "6379": "Ġrequest",
  "6380": "ler",
  "6381": "Ġgust",
  "6382": "Ġyet.",
  "6383": "Ġbravely",
  "6384": "Ġhits",
  "6385": "Ġdaughter.",
  "6386": "Ġfloor,",
  "6387": "Ġmeasured",
  "6388": "Ġgiraffe",
  "6389": "Ġstomach",
  "6390": "Ġsize",
  "6391": "Ġlow",
  "6392": "Ġupstair",
  "6393": "Ġlittle.",
  "6394": "Ġsunl",
  "6395": "Ġeye.",
  "6396": "Ġ\"Your",
  "6397": "Ġtowel.",
  "6398": "Ġtasty.",
  "6399": "Ġpie.",
  "6400": "ĠThere,",
  "6401": "Ġshell.",
  "6402": "Ġpractic",
  "6403": "Ġappreciate",
  "6404": "Ġhoo",
  "6405": "Ġfinally,",
  "6406": "\"What's",
  "6407": "Ġspider.",
  "6408": "Ġsupposed",
  "6409": "Ġbikes",
  "6410": "Ġmemories",
  "6411": "Ġear.",
  "6412": "Ġsew",
  "6413": "Ġjail",
  "6414": "Ġdogg",
  "6415": "Ġcool!",
  "6416": "Ġexamine",
  "6417": "Ġasht",
  "6418": "Ġsome.",
  "6419": "Ġpole",
  "6420": "Ġmore,",
  "6421": "Ġflower,",
  "6422": "Ġturns.",
  "6423": "Ġcolorful.",
  "6424": "Ġpetals",
  "6425": "Ġattached",
  "6426": "ipping",
  "6427": "Ġcomfortable.",
  "6428": "Ġneighborhood",
  "6429": "Ġyourself.",
  "6430": "Ġboots",
  "6431": "Ġhours.",
  "6432": "Ġpunish",
  "6433": "ascin",
  "6434": "ents",
  "6435": "Ġclimbs",
  "6436": "Ġdancer",
  "6437": "Ġpaw.",
  "6438": "ĠCharlie",
  "6439": "Ġpalm",
  "6440": "Ġmicrophone",
  "6441": "Ġprovide",
  "6442": "ey.",
  "6443": "Ġlugg",
  "6444": "ari",
  "6445": "Ġnewsp",
  "6446": "ĠFo",
  "6447": "Ġâ€œH",
  "6448": "Ġmusician",
  "6449": "Ġleave,",
  "6450": "Ġchocolate.",
  "6451": "Ġcrown.",
  "6452": "Ġprize",
  "6453": "Ġviolin",
  "6454": "jo",
  "6455": "ĠTw",
  "6456": "Ġhelp.\"",
  "6457": "Ġblock.",
  "6458": "Ġ\"Go",
  "6459": "Ġdolph",
  "6460": "Ġprize.",
  "6461": "Ġadvice.",
  "6462": "Ġencouraged",
  "6463": "ĠPeople",
  "6464": "Ġnewspap",
  "6465": "ĠHave",
  "6466": "Ġplayer",
  "6467": "allen",
  "6468": "Ġliked.",
  "6469": "Ġthree-year-old",
  "6470": "Ġmum,",
  "6471": "Ġballoons.",
  "6472": "Ġugly.",
  "6473": "Ġteasp",
  "6474": "Yes",
  "6475": "cen",
  "6476": "Ġfascin",
  "6477": "Ġhesit",
  "6478": "Ġeff",
  "6479": "Ġwe're",
  "6480": "Ġthere!",
  "6481": "Ġbirdc",
  "6482": "Ġboxes.",
  "6483": "Ġreplace",
  "6484": "Ġdishes",
  "6485": "Ġpipe",
  "6486": "imes.",
  "6487": "ĠBen,\"",
  "6488": "Ġfear.",
  "6489": "Ġcomf",
  "6490": "emember",
  "6491": "Ġfingers.",
  "6492": "nder.",
  "6493": "Ġthere.\"",
  "6494": "Ġchallen",
  "6495": "Ġfarmer.",
  "6496": "Ġnothing.",
  "6497": "Ġhonest.",
  "6498": "Ġcamera.",
  "6499": "Ġdanger.",
  "6500": "Ġlicen",
  "6501": "Ġlaid",
  "6502": "Ġthree,",
  "6503": "Ġdrum.",
  "6504": "Ġlabel",
  "6505": "ĠInstead,",
  "6506": "Ġshot",
  "6507": "Ġboard.",
  "6508": "Ġsnapped",
  "6509": "â€œW",
  "6510": "Ġscissors.",
  "6511": "ĠRosie",
  "6512": "sy.",
  "6513": "ĠSee",
  "6514": "Ġexcitedly.",
  "6515": "Ġfine.",
  "6516": "Ġbook,",
  "6517": "Ġrocks,",
  "6518": "Ġyelled,",
  "6519": "Ġdrinking",
  "6520": "Ġbutterfly,",
  "6521": "Ġcan't.",
  "6522": "Ġcrayon.",
  "6523": "Ġlunch,",
  "6524": "Ġvideo",
  "6525": "vet",
  "6526": "ĠSun",
  "6527": "Ġflame",
  "6528": "Ġabout.",
  "6529": "Ġreceived",
  "6530": "Ġfut",
  "6531": "ited",
  "6532": "Ġ\"Ben,",
  "6533": "ĠIs",
  "6534": "Ġbird!\"",
  "6535": "uce.",
  "6536": "Ġcalls",
  "6537": "Ġkind,",
  "6538": "Johnny",
  "6539": "Ġdrawings",
  "6540": "Ġactually",
  "6541": "Ġcherry",
  "6542": "Ġbuzzing",
  "6543": "Ġtig",
  "6544": "ĠHenry",
  "6545": "Ġ\"E",
  "6546": "Ġhelpless",
  "6547": "Ġwood.",
  "6548": "Ġtag.",
  "6549": "Ġsizes.",
  "6550": "Ġbak",
  "6551": "Ġok,",
  "6552": "ates.",
  "6553": "Ġbit.",
  "6554": "ĠMommy,",
  "6555": "Ġhotel",
  "6556": "Ġbarks",
  "6557": "Ġsolved",
  "6558": "Ġguilty.",
  "6559": "efore",
  "6560": "Ġalarm",
  "6561": "Ġpretty,",
  "6562": "Ġmall",
  "6563": "Ġdoing,",
  "6564": "Ġback!",
  "6565": "Ġnew,",
  "6566": "rob",
  "6567": "Ġfamily,",
  "6568": "Ġjoke.",
  "6569": "ĠGood",
  "6570": "Ġsits",
  "6571": "Ġfield,",
  "6572": "w!",
  "6573": "xc",
  "6574": "isf",
  "6575": "Ġtogether!",
  "6576": "Ġchess",
  "6577": "Ġglitt",
  "6578": "Ġveil",
  "6579": "Ġtoday.\"",
  "6580": "Ġpillow.",
  "6581": "Ġorganized.",
  "6582": "ha",
  "6583": "ĠSue,",
  "6584": "Ġ\"t",
  "6585": "Ġscur",
  "6586": "Ġflood",
  "6587": "Ġslowly.",
  "6588": "Ġcastle,",
  "6589": "Ġcollecting",
  "6590": "Ġstones.",
  "6591": "Ġenergy",
  "6592": "Ġaeroplane",
  "6593": "Ġjournal",
  "6594": "Ġunhappy.",
  "6595": "-se",
  "6596": "Ġrhy",
  "6597": "Ġplays",
  "6598": "Ġbadly.",
  "6599": "Ġend!",
  "6600": "Ġcold,",
  "6601": "\"Hello",
  "6602": "Ġmailman",
  "6603": "Ġcurled",
  "6604": "Ġanchor",
  "6605": "Mark",
  "6606": "ĠBen!\"",
  "6607": "Ġcoins.",
  "6608": "Ġconf",
  "6609": "ĠKing",
  "6610": "Ġcloud.",
  "6611": "Ġstairs.",
  "6612": "Ġlucky.",
  "6613": "mother",
  "6614": "xy",
  "6615": "Ġstorm.",
  "6616": "Ġwherever",
  "6617": "Ġwarmth",
  "6618": "John's",
  "6619": "Ġelse.\"",
  "6620": "Ġsurprise!",
  "6621": "ĠTrue",
  "6622": "ke.\"",
  "6623": "wal",
  "6624": "Ġberry",
  "6625": "Ġpet.",
  "6626": "Ġpage",
  "6627": "Ġink",
  "6628": "Ġrake",
  "6629": "Ġplay!\"",
  "6630": "ĠSammy.",
  "6631": "ĠWe'll",
  "6632": "Ġways.",
  "6633": "Ġsatisf",
  "6634": "Ġbreaks",
  "6635": "Ġgiggle.",
  "6636": "Ġpaws",
  "6637": "Ġtunnel.",
  "6638": "\"Please,",
  "6639": "Ġequip",
  "6640": "Ġteaspoon",
  "6641": "Fl",
  "6642": "Ġremember,",
  "6643": "Ġsticks.",
  "6644": "Ġrespectful",
  "6645": "Ġescape.",
  "6646": "Ġfriendship.",
  "6647": "Ġforth.",
  "6648": "Ġbathtub.",
  "6649": "Ġlaundry",
  "6650": "Next,",
  "6651": "ner",
  "6652": "ision.",
  "6653": "ĠBen!",
  "6654": "Ġtime!",
  "6655": "Ġsunris",
  "6656": "Ġneighbor's",
  "6657": "Daddy",
  "6658": "Before",
  "6659": "Ġfriend?\"",
  "6660": "ages.",
  "6661": "Ġcups",
  "6662": "Ġyoga",
  "6663": "Ġrazor",
  "6664": "Ġlect",
  "6665": "Ġstation",
  "6666": "Ġchir",
  "6667": "Ġoffer",
  "6668": "Ġrock,",
  "6669": "Ġcrashed",
  "6670": "Ġsparkle",
  "6671": "Ġmail.",
  "6672": "Ġberries.",
  "6673": "Ġwriting",
  "6674": "Ġremained",
  "6675": "Ġapron",
  "6676": "-and",
  "6677": "Sus",
  "6678": "mer.",
  "6679": "Ġowner,",
  "6680": "Ġvel",
  "6681": "Ġlast,",
  "6682": "ĠChirp",
  "6683": "Ġsword.",
  "6684": "ĠJames",
  "6685": "Ġsuperhero",
  "6686": "th.",
  "6687": "im,",
  "6688": "Ġshade",
  "6689": "Ġbrain",
  "6690": "Ġsurprised,",
  "6691": "Ġpulling",
  "6692": "Ġtwisted",
  "6693": "Ġzipper",
  "6694": "\",",
  "6695": "Ġduring",
  "6696": "Ġcounter.",
  "6697": "Ġshape.",
  "6698": "Ġgone!",
  "6699": "Ġfountain.",
  "6700": "Ġgiraff",
  "6701": "Ġsame.",
  "6702": "Ġvet",
  "6703": "Ġraised",
  "6704": "Ġcrib",
  "6705": "Ġhigher,",
  "6706": "Ġsoldi",
  "6707": "Ġanymore.\"",
  "6708": "Ġeffort",
  "6709": "Ġtheater",
  "6710": "atch",
  "6711": "Ġcar!\"",
  "6712": "Ġflav",
  "6713": "Ġ\"Wow!",
  "6714": "Ġstay.",
  "6715": "Ġtease",
  "6716": "Ġmagic.",
  "6717": "Ġsidewal",
  "6718": "Ġjourney,",
  "6719": "ĠLee",
  "6720": "Ġyarn.",
  "6721": "mm,",
  "6722": "Ġstage.",
  "6723": "Ġmom.\"",
  "6724": "Ġallow",
  "6725": "Ġknife.",
  "6726": "Ġworm.",
  "6727": "Ġlook!",
  "6728": "ĠRob",
  "6729": "Ġpizza.",
  "6730": "Ġmelted",
  "6731": "Ġreverse",
  "6732": "Ġrefreshed",
  "6733": "up.",
  "6734": "Ġok.",
  "6735": "Ġmoms.",
  "6736": "Ġtremb",
  "6737": "Ġpeered",
  "6738": "Ġjokes",
  "6739": "Ġtrains",
  "6740": "Ġzipped",
  "6741": "Ġfinished.",
  "6742": "Ġhide-and",
  "6743": "Ġearthqu",
  "6744": "Ġbes",
  "6745": "aring",
  "6746": "ence",
  "6747": "Ġship.",
  "6748": "Ġclay.",
  "6749": "Ġscore",
  "6750": "aser.",
  "6751": "Ġtrunk.",
  "6752": "Ġtruck,",
  "6753": "Ġsparkly.",
  "6754": "Ġurge",
  "6755": "oved",
  "6756": "Ġstation.",
  "6757": "Ġother.\"",
  "6758": "ĠMom,\"",
  "6759": "Ġwatered",
  "6760": "Ġdraw.",
  "6761": "Ġpastry",
  "6762": "umber.",
  "6763": "Ġfit.",
  "6764": "Ġsink.",
  "6765": "Ġhide-and-se",
  "6766": "Ġwre",
  "6767": "Ġwid",
  "6768": "Ġsore",
  "6769": "allow",
  "6770": "als.",
  "6771": "ist.",
  "6772": "Ġbeautiful!",
  "6773": "Ġsister,",
  "6774": "Ġeasy.",
  "6775": "Ġfolder",
  "6776": "Ġtutor",
  "6777": "ives",
  "6778": "kin.",
  "6779": "Ġpen.",
  "6780": "ames",
  "6781": "Ġmanage",
  "6782": "Ġmoves",
  "6783": "ĠNut",
  "6784": "Ġraining",
  "6785": "Ġfixing",
  "6786": "Ġsleep,",
  "6787": "Ġsheep.",
  "6788": "Ġnature.",
  "6789": "Ġitself.",
  "6790": "Ġfaucet",
  "6791": "Ġsurrounded",
  "6792": "Now",
  "6793": "Ġnav",
  "6794": "Ġhalf.",
  "6795": "ĠHere",
  "6796": "Ġplayed.",
  "6797": "Ġlooked.",
  "6798": "Ġgood!",
  "6799": "Ġplanted",
  "6800": "Ġsmoke.",
  "6801": "Ġrespons",
  "6802": "Ġfrowned.",
  "6803": "Ġclapped.",
  "6804": "Ġdisappointed,",
  "6805": "Ġolive",
  "6806": "ĠSteve",
  "6807": "Jake",
  "6808": "Ġrust",
  "6809": "ĠEl",
  "6810": "Ġrail",
  "6811": "Ġreal.",
  "6812": "Ġwarning",
  "6813": "Ġleaves,",
  "6814": "Ġ\"Help",
  "6815": "Ġmissing.",
  "6816": "Ġbeef",
  "6817": "Ġhurric",
  "6818": "Ġreceive",
  "6819": "Ġfurniture",
  "6820": "Ġmattress",
  "6821": "Ġrhyth",
  "6822": "..",
  "6823": "Ġplay.\"",
  "6824": "Ġwatches",
  "6825": "Ġsnail",
  "6826": "Ġglowed",
  "6827": "Ġshells.",
  "6828": "Ġmoving.",
  "6829": "Ġmiserable.",
  "6830": "Ġgrocery",
  "6831": "Ġfirefight",
  "6832": "Ġrise",
  "6833": "Ġspace.",
  "6834": "ĠJoy",
  "6835": "Ġunite",
  "6836": "Ġremembers",
  "6837": "Ġhigh,",
  "6838": "ĠOK,",
  "6839": "Ġcows",
  "6840": "Emily",
  "6841": "Ġwizard",
  "6842": "Ġhim.\"",
  "6843": "Ġleather",
  "6844": "Ġbecom",
  "6845": "Ġbus.",
  "6846": "ĠSue's",
  "6847": "Ġsail.",
  "6848": "Ġ\"Give",
  "6849": "Ġfrightened.",
  "6850": "Ġmailbox.",
  "6851": "Ġwaffle",
  "6852": "Ġfruits.",
  "6853": "Ġeggs.",
  "6854": "Ġsoared",
  "6855": "Ġbreeze",
  "6856": "All",
  "6857": "ored",
  "6858": "Ġstable",
  "6859": "Ġshake.",
  "6860": "Ġalone,",
  "6861": "ĠLiz",
  "6862": "Ġlotion",
  "6863": "Ġball!\"",
  "6864": "Ġ\"Max",
  "6865": "Ġbreath.",
  "6866": "Ġrecognized",
  "6867": "Ġbeside",
  "6868": "emy",
  "6869": "Ġfed",
  "6870": "ĠMaggie",
  "6871": "Ġme?",
  "6872": "ĠMom?\"",
  "6873": "Ġworld,",
  "6874": "ubble",
  "6875": "Ġletter.",
  "6876": "ĠSometimes,",
  "6877": "Ġbanana.",
  "6878": "Ġadmiring",
  "6879": "Ġconfid",
  "6880": "Moral",
  "6881": "Ġmom?\"",
  "6882": "Ġpretti",
  "6883": "Ġchild.",
  "6884": "Ġtoys.\"",
  "6885": "ĠSpot's",
  "6886": "Ġpapers",
  "6887": "Ġword.",
  "6888": "Ġexplained.",
  "6889": "Ġview.",
  "6890": "Ġporch",
  "6891": "Ġobserve",
  "6892": "Ġshrugged",
  "6893": "Ġcalendar",
  "6894": "Ġnone",
  "6895": "Ġrot",
  "6896": "Ġperched",
  "6897": "ĠSpike",
  "6898": "Ġhated",
  "6899": "Ġwheel.",
  "6900": "Ġtable,",
  "6901": "Ġmeant.",
  "6902": "Ġpalace",
  "6903": "Ġgrapes",
  "6904": "Ġmuffin",
  "6905": "Ġobe",
  "6906": "Ġus,\"",
  "6907": "Ġhappiest",
  "6908": "ĠMat",
  "6909": "Ġspit",
  "6910": "apping",
  "6911": "Ġgames,",
  "6912": "Ġgiggle",
  "6913": "Ġbark.",
  "6914": "Ġgenerous.",
  "6915": "\"Go",
  "6916": "work.",
  "6917": "Ġpirates",
  "6918": "sed",
  "6919": "Ġlumber",
  "6920": "Ġwanting",
  "6921": "Ġcane",
  "6922": "Ġalive",
  "6923": "antly",
  "6924": "Ġthis!\"",
  "6925": "ĠPo",
  "6926": "Ġwagon.",
  "6927": "Ġdesk.",
  "6928": "Ġringing",
  "6929": "Ġmeasuring",
  "6930": "Ġmenu",
  "6931": "Ġice.",
  "6932": "ometer",
  "6933": "ight,",
  "6934": "Ġpoison",
  "6935": "Ġpepp",
  "6936": "Ġ\"Tim,",
  "6937": "Ġkind.\"",
  "6938": "Ġclose,",
  "6939": "Ġblocks,",
  "6940": "Ġmarried",
  "6941": "Ġgrowl",
  "6942": "Ġhurried",
  "6943": "Ġpile.",
  "6944": "Ġflag.",
  "6945": "Ġcircle.",
  "6946": "Ġbattery",
  "6947": "Ġbleed",
  "6948": "Ġthermometer",
  "6949": "Ġkitten.",
  "6950": "Ġwaste",
  "6951": "ay!",
  "6952": "Ġspill",
  "6953": "ĠTom!\"",
  "6954": "Ġsometimes.",
  "6955": "Ġhose.",
  "6956": "Ġbear!",
  "6957": "Ġbrand",
  "6958": "Ġturning",
  "6959": "Ġsays:",
  "6960": "Ġfrogs",
  "6961": "Ġkisses",
  "6962": "Ġquestion.",
  "6963": "Ġasking.",
  "6964": "Ġcrept",
  "6965": "Ġtruth",
  "6966": "Ġsofa",
  "6967": "ĠSund",
  "6968": "ĠWhat's",
  "6969": "Ġwarm,",
  "6970": "Ġrace,",
  "6971": "ving.",
  "6972": "Ġyet",
  "6973": "Ġjunk",
  "6974": "ĠSpot,",
  "6975": "Ġperfectly",
  "6976": "Ġwisdom",
  "6977": "Ġbringing",
  "6978": "Ġsuppl",
  "6979": "Ġcart.",
  "6980": "Ġanxious.",
  "6981": "Ġchurch",
  "6982": "Ġsigh",
  "6983": "Ġby,",
  "6984": "Ġhate",
  "6985": "Ġfash",
  "6986": "Ġdaisy",
  "6987": "Ġevent",
  "6988": "Ġrow",
  "6989": "Ġtrade",
  "6990": "Ġperson.",
  "6991": "Ġdistance",
  "6992": "Ġserved",
  "6993": "Ġhay.",
  "6994": "Ġfile",
  "6995": "Ġlung",
  "6996": "Ġpit",
  "6997": "Ġthere!\"",
  "6998": "Ġdog!",
  "6999": "Ġnice!\"",
  "7000": "Ġthrilled",
  "7001": "Ġshouting",
  "7002": "Ġcurios",
  "7003": "Ġyes!",
  "7004": "Ġinsisted",
  "7005": "Ġlow,",
  "7006": "Ġmister",
  "7007": "amber",
  "7008": "adly,",
  "7009": "ĠBy",
  "7010": "Ġfun,\"",
  "7011": "Ġboys.",
  "7012": "Ġfriends?\"",
  "7013": "ĠFro",
  "7014": "Ġfamil",
  "7015": "Ġtrap.",
  "7016": "Ġ\"We're",
  "7017": "Ġgrowled",
  "7018": "Ġtoday?\"",
  "7019": "Ġvillag",
  "7020": "Ġsoap.",
  "7021": "Ġrush",
  "7022": "Ġ\"And",
  "7023": "ĠMe",
  "7024": "Ġclass.",
  "7025": "Ġglue.",
  "7026": "Ġharder.",
  "7027": "Ġbadly",
  "7028": "ĠPenny",
  "7029": "Ġsky!",
  "7030": "Ġamazed!",
  "7031": "Ġquietly",
  "7032": "Ġtricks",
  "7033": "Ġworking.",
  "7034": "Ġordered",
  "7035": "Ġstubborn.",
  "7036": "Ġexperience",
  "7037": "Ġtroubled",
  "7038": "Ġgasped.",
  "7039": "dam",
  "7040": "Ġspaces",
  "7041": "ĠAbigail",
  "7042": "Ġmudd",
  "7043": "Ġpaused",
  "7044": "ĠSarah's",
  "7045": "Ġlily",
  "7046": "Ġcow.",
  "7047": "Ġrip",
  "7048": "Ġmakeup",
  "7049": "Ġfriends!",
  "7050": "Ġrunning,",
  "7051": "Ġlooking.",
  "7052": "Ġguy",
  "7053": "Ġsplash.",
  "7054": "Ġmeeting",
  "7055": "Ġlocked.",
  "7056": "Ġstream.",
  "7057": "ĠFreddy",
  "7058": "\"Help,",
  "7059": "Ġholiday",
  "7060": "igz",
  "7061": "Ġweren't",
  "7062": "Ġbrings",
  "7063": "Ġcareless.",
  "7064": "isten",
  "7065": "Ġdoll's",
  "7066": "Ġhead,",
  "7067": "Ġheads.",
  "7068": "Ġarrived.",
  "7069": "Ġdancing.",
  "7070": "Ġlights.",
  "7071": "Ġbene",
  "7072": "Ġmystery",
  "7073": "Ġcherries",
  "7074": "Ġlater.\"",
  "7075": "Ġchirped",
  "7076": "Ġbare",
  "7077": "Ġthere's",
  "7078": "Ġtrem",
  "7079": "Ġcoal",
  "7080": "Ġfeelings.",
  "7081": "Ġtall.",
  "7082": "Ġ\"See,",
  "7083": "Ġdeeper",
  "7084": "Ġfields",
  "7085": "Ġwhistled",
  "7086": "Ġfolded",
  "7087": "Ġscratched",
  "7088": "Ġtape.",
  "7089": "bble.",
  "7090": "Ġbon",
  "7091": "Ġbake.",
  "7092": "Ġpon",
  "7093": "Ġgym",
  "7094": "Ġhelpless.",
  "7095": "Ġsad?\"",
  "7096": "Ġflying.",
  "7097": "Ġcook.",
  "7098": "Ġprec",
  "7099": "Ġcontinue",
  "7100": "Ġbuttons.",
  "7101": "Ġreminder",
  "7102": "\"Give",
  "7103": "Ġlog.",
  "7104": "\"Be",
  "7105": "Ġindependent.",
  "7106": "Ġexercis",
  "7107": "Ġtoilet",
  "7108": "sing",
  "7109": "x-",
  "7110": "Ġleak",
  "7111": "Ġgood.\"",
  "7112": "ĠLook,",
  "7113": "Ġâ€œThank",
  "7114": "Ġfirst!\"",
  "7115": "Ġthirsty",
  "7116": "Ġproper",
  "7117": "Ġhist",
  "7118": "Ġweighed",
  "7119": "ĠJe",
  "7120": "Ġpeel",
  "7121": "Ġhurt,",
  "7122": "Ġpretty!",
  "7123": "Ġswims",
  "7124": "Ġwrong?\"",
  "7125": "Ġcried,",
  "7126": "Ġpretty.\"",
  "7127": "Ġcave,",
  "7128": "Ġtornado",
  "7129": "Ġbookcase",
  "7130": "Ġbeneath",
  "7131": "ond.",
  "7132": "Ġx-",
  "7133": "Ġcard.",
  "7134": "Ġpanc",
  "7135": "Ġknelt",
  "7136": "Ġflap",
  "7137": "Ġgotten",
  "7138": "Ġmuch.\"",
  "7139": "Ġorange.",
  "7140": "ion,",
  "7141": "Ġbites",
  "7142": "Ġtaller",
  "7143": "Ġwalls.",
  "7144": "Ġpainting.",
  "7145": "Ġblankets",
  "7146": "ĠSomeone",
  "7147": "Ġchewed",
  "7148": "Ġopera",
  "7149": "Ġdigging",
  "7150": "ĠMimi",
  "7151": "Ġtru",
  "7152": "ĠNot",
  "7153": "Ġrevealed",
  "7154": "Ġnation",
  "7155": "Ġsauce.",
  "7156": "Ġgoal.",
  "7157": "um,",
  "7158": "Ġsome?\"",
  "7159": "ĠLetâ€™s",
  "7160": "Ġhair,",
  "7161": "Ġyummy!\"",
  "7162": "Ġmap.",
  "7163": "Ġjam.",
  "7164": "Ġdessert.",
  "7165": "Ġsimple",
  "7166": ",â€",
  "7167": "Ġtide",
  "7168": "Ġmeal.",
  "7169": "Ġmeowed",
  "7170": "Ġopened.",
  "7171": "Ġnext.",
  "7172": "Ġdrawing.",
  "7173": "Ġcomple",
  "7174": "Ġunderstanding",
  "7175": "Ġexplained,",
  "7176": "Ġactiv",
  "7177": "Ġimpressed.",
  "7178": "Ġimpatient.",
  "7179": "Ġsofa.",
  "7180": "son",
  "7181": "ided",
  "7182": "ĠHe's",
  "7183": "Ġinside!",
  "7184": "Ġdead.",
  "7185": "Sara,",
  "7186": "Ġgreen,",
  "7187": "Ġtreasures",
  "7188": "Ġreach.",
  "7189": "Ġminute",
  "7190": "Ġcomputer.",
  "7191": "Ġbutterflies.",
  "7192": "Ġonwards,",
  "7193": "inky",
  "7194": "Ġbad,",
  "7195": "Ġbutter.",
  "7196": "ĠJane's",
  "7197": "Ġwoman.",
  "7198": "Ġtools.",
  "7199": "Ġlock.",
  "7200": "Ġgrandmother",
  "7201": "Ġdestroyed",
  "7202": "Ġwand.",
  "7203": "illy,",
  "7204": "Ġdo.\"",
  "7205": "Ġwhite.",
  "7206": "Ġhim?\"",
  "7207": "Ġgrill",
  "7208": "Ġtrying.",
  "7209": "Ġyou.â€",
  "7210": "Ġselling",
  "7211": "Ġbottom.",
  "7212": "Ġbitter.",
  "7213": "Ġlibrary.",
  "7214": "Ġpermit",
  "7215": "Ġyawned",
  "7216": "Ġneighbourhood",
  "7217": "Ġfireplace",
  "7218": "Ġsunglasses",
  "7219": "ious,",
  "7220": "ĠBubble",
  "7221": "Ġwant.\"",
  "7222": "Ġthem!",
  "7223": "Ġfastest",
  "7224": "Ġmonkeys",
  "7225": "Ġrelax.",
  "7226": "Ġcreek",
  "7227": "Ġfreezer",
  "7228": "looking",
  "7229": "Ġsix",
  "7230": "Ġwas!",
  "7231": "ĠTina",
  "7232": "Ġbeat",
  "7233": "Ġhis.",
  "7234": "Ġexact",
  "7235": "Ġmommy!",
  "7236": "Ġcupboard.",
  "7237": "Ġ\"These",
  "7238": "Ġanswered.",
  "7239": "Ġexamined",
  "7240": "Ġpencil.",
  "7241": "Ġblueberry",
  "7242": "Ġvelvet",
  "7243": "Ġ\"Max,",
  "7244": "ced",
  "7245": "Ġwhy.",
  "7246": "Ġloud,",
  "7247": "ĠCat",
  "7248": "Ġdoors",
  "7249": "Ġtalent",
  "7250": "Ġlets",
  "7251": "ĠEmily.",
  "7252": "Ġunderstand,",
  "7253": "Ġpetted",
  "7254": "Ġshocked.",
  "7255": "Ġpupil",
  "7256": "Ġbegged",
  "7257": "Ġunivers",
  "7258": "Ġwreck",
  "7259": "\"The",
  "7260": "Ġplay?\"",
  "7261": "Ġchamber",
  "7262": "ĠMom!\"",
  "7263": "Ġoverjoy",
  "7264": "Ġstrang",
  "7265": "ĠJohn's",
  "7266": "Ġpinched",
  "7267": "Ġstruggling",
  "7268": "xyg",
  "7269": "-looking",
  "7270": "Ġdo?",
  "7271": "Ġwhatever",
  "7272": "ouse,",
  "7273": "Ġshoulder.",
  "7274": "ĠMommy!\"",
  "7275": "Ġanother.",
  "7276": "Ġmissile",
  "7277": "Ġamazing!\"",
  "7278": "ggy",
  "7279": "selves",
  "7280": "ĠSnowy",
  "7281": "igzag",
  "7282": "Dave",
  "7283": "rin",
  "7284": "Ġweek.",
  "7285": "Ġone?\"",
  "7286": "Ġbears",
  "7287": "Ġwarn",
  "7288": "ĠDaddy.",
  "7289": "Ġsitu",
  "7290": "Ġstreet,",
  "7291": "Ġcollar.",
  "7292": "Ġpatiently",
  "7293": "Ġtalking.",
  "7294": "Ġimagination",
  "7295": "\"OK,\"",
  "7296": "Ġspacesh",
  "7297": "enc",
  "7298": "ĠSqu",
  "7299": "Ġ\"y",
  "7300": "Ġcone.",
  "7301": "ĠBob's",
  "7302": "Ġbrighter.",
  "7303": "Ġpretend.",
  "7304": "ĠHowever,",
  "7305": "Ġteam.",
  "7306": "Ġmicroscope",
  "7307": "Susie",
  "7308": "ches.",
  "7309": "hest",
  "7310": "edd",
  "7311": "ĠSl",
  "7312": "Ġyou\".",
  "7313": "Ġout!",
  "7314": "Ġalive.",
  "7315": "ĠTimmy!",
  "7316": "Ġdecides",
  "7317": "Ġvowed",
  "7318": "Ġslip",
  "7319": "day.",
  "7320": "Ġsings",
  "7321": "Ġcatching",
  "7322": "Ġsmell.",
  "7323": "Ġdriver.",
  "7324": "Ġsliding",
  "7325": "Ġornament",
  "7326": "ile,",
  "7327": "enty",
  "7328": "Ġbrushed",
  "7329": "Ġtogether?\"",
  "7330": "Ġwindow,",
  "7331": "Ġ\"Did",
  "7332": "Ġwonderful.",
  "7333": "\"My",
  "7334": "Ġnumbers.",
  "7335": "Ġchickens",
  "7336": "Ġsettle",
  "7337": "Ġtroubled.",
  "7338": "Ġtelevision",
  "7339": "Ġfet",
  "7340": "Ġcan,",
  "7341": "Ġjokes.",
  "7342": "Ġunic",
  "7343": "Ġyelled.",
  "7344": "Ġbunn",
  "7345": "Ġdrive.",
  "7346": "Ġemerg",
  "7347": "Ġâ€œWe",
  "7348": "Ġfactory",
  "7349": "door",
  "7350": "een.",
  "7351": "Ġfriend!",
  "7352": "Ġout!\"",
  "7353": "Ġchoo",
  "7354": "ĠLuna",
  "7355": "Ġstruck",
  "7356": "Ġtea.",
  "7357": "Ġtrash.",
  "7358": "Ġsoftly",
  "7359": "Ġdrawer.",
  "7360": "Ġmatches",
  "7361": "avid",
  "7362": "Ġtomorrow.\"",
  "7363": "Ġgrandpa.",
  "7364": "Ġtemple",
  "7365": "house",
  "7366": "Ġoutdoor",
  "7367": "ĠJos",
  "7368": "ĠTom,\"",
  "7369": "Ġbird!",
  "7370": "Ġcopper",
  "7371": "Ġgrape",
  "7372": "Ġjumped,",
  "7373": "Ġlistened.",
  "7374": "Ġ\"Okay",
  "7375": "Ġdrift",
  "7376": "Ġworried,",
  "7377": "Ġrespectful.",
  "7378": "Ġpresents",
  "7379": "ĠZoom",
  "7380": "Ġgained",
  "7381": "Ġâ€œThatâ€™s",
  "7382": "Ġperfume",
  "7383": "Ġweapon",
  "7384": "nie",
  "7385": "ĠOnce",
  "7386": "Ġstitch",
  "7387": "Ġtimes.",
  "7388": "Ġwhip",
  "7389": "ĠTim!",
  "7390": "ĠTom!",
  "7391": "ases",
  "7392": "Ġabo",
  "7393": "Ġshower",
  "7394": "But,",
  "7395": "Ġpeople,",
  "7396": "Ġgreat.",
  "7397": "Ġwooden",
  "7398": "Ġ\"Sure",
  "7399": "Ġvisiting",
  "7400": "Ġtreasures.",
  "7401": "Ġblackboard",
  "7402": "Ġ3-year-old",
  "7403": "Ġ\"No!",
  "7404": "Ġfoolish.",
  "7405": "Ġfrowned",
  "7406": "Ġfuel",
  "7407": "Ġoxyg",
  "7408": "oof",
  "7409": "Ġ\"w",
  "7410": "Ġmeow",
  "7411": "Ġclean,",
  "7412": "ĠRuby",
  "7413": "Ġsorry.\"",
  "7414": "Ġzooming",
  "7415": "Ġtelephone",
  "7416": "eed",
  "7417": "ĠY",
  "7418": "Ġall,",
  "7419": "Ġscoop",
  "7420": "Ġslice",
  "7421": "Ġevening,",
  "7422": "Ġwaited,",
  "7423": "Ġaccom",
  "7424": "\"Let",
  "7425": "Ġbelow.",
  "7426": "Ġsetting",
  "7427": "Ġriver,",
  "7428": "Ġeasily.",
  "7429": "Ġexperien",
  "7430": "Ġsunset",
  "7431": "Ġstudied",
  "7432": "Ġnavy",
  "7433": "Ġfriend!\"",
  "7434": "Ġunderground",
  "7435": "Ġgreat!",
  "7436": "Ġ\"Yes!\"",
  "7437": "Ġstupid.",
  "7438": "ĠSharing",
  "7439": "Ġobey",
  "7440": "pin",
  "7441": "Ġtour",
  "7442": "Ġof.",
  "7443": "Ġrele",
  "7444": "Ġgirls",
  "7445": "Ġunderne",
  "7446": "Ġexplore,",
  "7447": "Ġapples,",
  "7448": "Ġgrumpy.",
  "7449": "Ġintroduc",
  "7450": "Ġsuffer",
  "7451": "Ġprepared",
  "7452": "Ġcomfy",
  "7453": "len",
  "7454": "Ġlamp.",
  "7455": "eri",
  "7456": "Ġfaster,",
  "7457": "Ġtree!",
  "7458": "ĠSpark",
  "7459": "Ġair,",
  "7460": "Ġlions,",
  "7461": "Ġsalad.",
  "7462": "Ġcourse!",
  "7463": "\"Yes",
  "7464": "\"Help!",
  "7465": "Ġinstruct",
  "7466": "Luckily,",
  "7467": "Ġsip",
  "7468": "isa.",
  "7469": "Ġmom,\"",
  "7470": "Ġcaut",
  "7471": "Ġdownstair",
  "7472": "Ġslapped",
  "7473": "Ġskipping",
  "7474": "Ġclosely",
  "7475": "Ġcareful,\"",
  "7476": "ĠCar",
  "7477": "Ġcutting",
  "7478": "Ġtall,",
  "7479": "Ġpiano.",
  "7480": "Ġstrawberries",
  "7481": "Ġplease.\"",
  "7482": "Ġchirping",
  "7483": "Ġwardrobe",
  "7484": "Ġtravell",
  "7485": "Ġgoo",
  "7486": "ley",
  "7487": "Ġone!\"",
  "7488": "Ġ\"Well",
  "7489": "xture",
  "7490": "Ġrain,",
  "7491": "Ġeasier",
  "7492": "Ġpaws.",
  "7493": "Ġinvitation",
  "7494": "Ġtank.",
  "7495": "Ġflour,",
  "7496": "Ġlanguage",
  "7497": "Ġlandscap",
  "7498": "Ġmagazine",
  "7499": "Tweet",
  "7500": "ber.",
  "7501": "eally",
  "7502": "ato.",
  "7503": "Ġyou?",
  "7504": "ĠMilly",
  "7505": "Ġgo?\"",
  "7506": "Ġare.",
  "7507": "ĠAm",
  "7508": "Ġslow,",
  "7509": "Ġnoise,",
  "7510": "Ġgiggled.",
  "7511": "Ġsour.",
  "7512": "Ġporch.",
  "7513": "Ġvillagers",
  "7514": "Ġbarely",
  "7515": "Ġand,",
  "7516": "Ġdais",
  "7517": "Ġup!\"",
  "7518": "ices.",
  "7519": "ĠAn",
  "7520": "Ġstory:",
  "7521": "Ġjacket.",
  "7522": "ĠOK.",
  "7523": "Ġinvestigate.",
  "7524": "Ġtask.",
  "7525": "ome,",
  "7526": "Ġrop",
  "7527": "Ġswamp",
  "7528": "Ġblouse",
  "7529": "Ġrealize",
  "7530": "\"Wow!\"",
  "7531": "Ġsticky",
  "7532": "Ġinside.\"",
  "7533": "Ġcarefully,",
  "7534": "Ġsuitc",
  "7535": "Ġrestaurant.",
  "7536": "Ġgrapes.",
  "7537": "Ġapart.",
  "7538": "Ġhoop.",
  "7539": "Ġaccompl",
  "7540": "Un",
  "7541": "ĠIâ€™m",
  "7542": "Ġhappier.",
  "7543": "ĠMil",
  "7544": "Ġ\"Is",
  "7545": "ĠLisa.",
  "7546": "Ġlonger.",
  "7547": "bye,",
  "7548": "Ġcastles",
  "7549": "Ġparked",
  "7550": "Ġsolut",
  "7551": "Ġflute.",
  "7552": "Ġcabinet",
  "7553": "Ġvehicle",
  "7554": "Ġairplane",
  "7555": "ĠHelp!\"",
  "7556": "ĠCoco",
  "7557": "loe",
  "7558": "Ġtest.",
  "7559": "Ġwide.",
  "7560": "aded",
  "7561": "ĠItâ€™s",
  "7562": "Ġvict",
  "7563": "Ġproudly.",
  "7564": "Ġsne",
  "7565": "Ġcheek",
  "7566": "Ġgrey",
  "7567": "Ġyellow,",
  "7568": "Ġladyb",
  "7569": "Ġbowed",
  "7570": "Ġalong,",
  "7571": "Andy",
  "7572": "Ġcreature.",
  "7573": "Ġclassroom",
  "7574": "Ġexactly",
  "7575": "Ġbank",
  "7576": "Ġtroph",
  "7577": "Ġtraff",
  "7578": "ĠRo",
  "7579": "Ġperfectly.",
  "7580": "Ġbuckle",
  "7581": "Ġpig.",
  "7582": "under.",
  "7583": "Ġsugar.",
  "7584": "Ġprayed",
  "7585": "Ġobedient.",
  "7586": "ĠTeddy.",
  "7587": "Ġmineral",
  "7588": "Ġprettiest",
  "7589": "ory.",
  "7590": "Ġthunder.",
  "7591": "â€.",
  "7592": "ĠMom's",
  "7593": "anta",
  "7594": "Ġstop,",
  "7595": "Ġmateri",
  "7596": "Ġrestless.",
  "7597": "Ġseen!",
  "7598": "Ġegg.",
  "7599": "Ġpuddles",
  "7600": "Ġcoats",
  "7601": "Ġdecorated",
  "7602": "Ġyard,",
  "7603": "Ġadventurous.",
  "7604": "Ġguessed",
  "7605": "Ġbeans",
  "7606": "Ġahead.",
  "7607": "Ġexercise",
  "7608": "robe.",
  "7609": "\"Anna,",
  "7610": "ashed",
  "7611": "Ġhug,",
  "7612": "Ġvent",
  "7613": "ĠMom.\"",
  "7614": "Ġbear's",
  "7615": "Ġwaits",
  "7616": "Ġwrite.",
  "7617": "Ġamazement",
  "7618": "Ġbreaking",
  "7619": "ĠOl",
  "7620": "Ġdangerous.\"",
  "7621": "Ġunusual.",
  "7622": "Ġbloom.",
  "7623": "Ġgreedy",
  "7624": "Ġswimming.",
  "7625": "ea",
  "7626": "Ġspade",
  "7627": "Ġpearl",
  "7628": "Ġthings!",
  "7629": "Ġstruggled",
  "7630": "Ġhandle.",
  "7631": "Ġstickers.",
  "7632": "Ġgrandma,",
  "7633": "Ġwhistling",
  "7634": "\"Here,",
  "7635": "Ġpants.",
  "7636": "ĠFrank",
  "7637": "Ġtrumpet.",
  "7638": "Ġrecognize",
  "7639": "Ġrefrigerator",
  "7640": "Ġwine",
  "7641": "indy",
  "7642": "Ġchange.",
  "7643": "Ġboth.",
  "7644": "Ġexplorer",
  "7645": "Ġdeer.",
  "7646": "Ġstop!\"",
  "7647": "ulu",
  "7648": "Ġstars,",
  "7649": "Ġcrash",
  "7650": "Ġsmelly.",
  "7651": "Ġbrown.",
  "7652": "laire",
  "7653": "Ġburning",
  "7654": "Ġfearful.",
  "7655": "Ġsuccessful.",
  "7656": "Ġargu",
  "7657": "Ġpersistent.",
  "7658": "Ġmicrophone.",
  "7659": "Ġfuture.",
  "7660": "Ġhive.",
  "7661": "Ġow!\"",
  "7662": "ĠBig",
  "7663": "Ġcheek.",
  "7664": "Ġcontro",
  "7665": "Ġaccidents",
  "7666": "Ġwheels.",
  "7667": "Ġscurried",
  "7668": "uke",
  "7669": "ened",
  "7670": "ĠThese",
  "7671": "ama.",
  "7672": "Ġglass.",
  "7673": "Ġsparkles",
  "7674": "Ġmovie.",
  "7675": "Ġbegin",
  "7676": "Ġpedal",
  "7677": "Ġhaircut.",
  "7678": "time.",
  "7679": "mare",
  "7680": "ude",
  "7681": "Ġopin",
  "7682": "Ġzero",
  "7683": "Ġbushes",
  "7684": "Ġupset,",
  "7685": "Ġserious.",
  "7686": "Ġspoiled.",
  "7687": "Ġpunished",
  "7688": "Ġsunset.",
  "7689": "Ġcompleted",
  "7690": "Bun",
  "7691": "nes",
  "7692": "Ġside,",
  "7693": "ays",
  "7694": "ĠSally,",
  "7695": "Ġsaying,",
  "7696": "Ġit.â€",
  "7697": "Ġwolf.",
  "7698": "Ġkeeps",
  "7699": "Ġuseful.",
  "7700": "Ġcandy,",
  "7701": "Ġcandles",
  "7702": "Ġcomforted",
  "7703": "Ġrelaxed",
  "7704": "Ġanymore,",
  "7705": "Ġvolcano.",
  "7706": "Ġharbor",
  "7707": "Finally",
  "7708": "Ġfestival",
  "7709": "ux",
  "7710": "Ġit!â€",
  "7711": "Ġthem!\"",
  "7712": "Ġrabbits",
  "7713": "Ġcrumb",
  "7714": "Ġwords,",
  "7715": "ĠSomething",
  "7716": "ĠZoe",
  "7717": "Ġlemonade",
  "7718": "Ġsoaring",
  "7719": "Ġcompetitive.",
  "7720": "Ġumbrella.",
  "7721": "Ġdictionary",
  "7722": "Ġsid",
  "7723": "Ġdent",
  "7724": "Ġdo!",
  "7725": "ĠMan",
  "7726": "Ġout.\"",
  "7727": "Ġowned",
  "7728": "Ġzigzag",
  "7729": "Ġdresses",
  "7730": "Ġpink.",
  "7731": "ĠOllie",
  "7732": "Ġchoice.",
  "7733": "Ġasleep,",
  "7734": "Ġclassroom.",
  "7735": "Ġrug.",
  "7736": "bric",
  "7737": "shing",
  "7738": "Ġlux",
  "7739": "Ġit?",
  "7740": "Ġloves.",
  "7741": "Ġfabric",
  "7742": "Ġchip",
  "7743": "Ġclosely.",
  "7744": "Ġstole",
  "7745": "Ġgreat,",
  "7746": "Ġnightmare",
  "7747": "Ġhoney,",
  "7748": "Ġfigured",
  "7749": "Ġjewelry",
  "7750": "Ġsuit.",
  "7751": "Ġsandcastle",
  "7752": "Ġearthquake",
  "7753": "oss",
  "7754": "Ġwedd",
  "7755": "ines.",
  "7756": "Ġeventually,",
  "7757": "Ġstart.",
  "7758": "Ġsoon!\"",
  "7759": "Ġkeeper",
  "7760": "Ġcolors,",
  "7761": "Ġwondering",
  "7762": "Ġworld!",
  "7763": "Ġfrost",
  "7764": "Ġcorn.",
  "7765": "Ġcows,",
  "7766": "Ġ\"Hey",
  "7767": "Ġpurse.",
  "7768": "Ġargue",
  "7769": "Ġfragile.",
  "7770": "'s.",
  "7771": "-b",
  "7772": "ednes",
  "7773": "Ġto,",
  "7774": "Ġpages",
  "7775": "arth.",
  "7776": "Ġgood!\"",
  "7777": "Ġcatch.",
  "7778": "ĠWe're",
  "7779": "Ġshoulder",
  "7780": "Joey",
  "7781": "Ġcookies,",
  "7782": "ĠKe",
  "7783": "Ġwrites",
  "7784": "Ġsize.",
  "7785": "Ġcarpet.",
  "7786": "Ġsweetheart.",
  "7787": "Ġmentioned",
  "7788": "cles",
  "7789": "rr",
  "7790": "ĠQu",
  "7791": "Ġdam",
  "7792": "ĠTues",
  "7793": "Ġgo!",
  "7794": "Ġcliff",
  "7795": "Ġpride.",
  "7796": "ĠMax!",
  "7797": "Ġ\"Welcome",
  "7798": "Ġclosed.",
  "7799": "ĠCarl",
  "7800": "Ġrocked",
  "7801": "Ġbrightly.",
  "7802": "Ġworked!",
  "7803": "Ġsigns",
  "7804": "Ġhorses",
  "7805": "Ġchanged.",
  "7806": "Ġbookshelf",
  "7807": "George",
  "7808": "ie,\"",
  "7809": "Ġreward.",
  "7810": "Ġboom",
  "7811": "Ġlook!\"",
  "7812": "Ġnoisy.",
  "7813": "though",
  "7814": "Ġentire",
  "7815": "Ġargued",
  "7816": "Ġpopcorn.",
  "7817": "Ġstatue.",
  "7818": "Ġceiling.",
  "7819": "ĠUncle",
  "7820": "Ġautomobile",
  "7821": "Ġpracticing",
  "7822": "Ġrhythm",
  "7823": "ayb",
  "7824": "Ġplates",
  "7825": "Ġgrant",
  "7826": "Ġpoppy",
  "7827": "Ġcool,",
  "7828": "Ġpiece.",
  "7829": "Ġracing",
  "7830": "Ġtricks.",
  "7831": "Ġbossy.",
  "7832": "Ġmarching",
  "7833": "Ġmemory",
  "7834": "Ġsausage",
  "7835": "\"OK!\"",
  "7836": "Ġscale.",
  "7837": "Ġprecious",
  "7838": "Ġcontrol",
  "7839": "Ġsi",
  "7840": "Ġbin.",
  "7841": "Ġmet.",
  "7842": "Ġhelper",
  "7843": "ĠLater",
  "7844": "Ġpeace.",
  "7845": "Ġenjo",
  "7846": "Ġbudge.",
  "7847": "Ġbest,",
  "7848": "Ġhurts!\"",
  "7849": "ĠDad,",
  "7850": "Ġchoice",
  "7851": "Ġescaped",
  "7852": "Ġdinosaur.",
  "7853": "Ġclock.",
  "7854": "Ġblueberries",
  "7855": "Ġchimney",
  "7856": "Ġashtray",
  "7857": "Ġluggage",
  "7858": "ĠNutty",
  "7859": "Ġwagging",
  "7860": "Ġking.",
  "7861": "ĠWednes",
  "7862": "ĠDid",
  "7863": "Ġjogging",
  "7864": "Ġdrain",
  "7865": "Ġsticker.",
  "7866": "Ġhats.",
  "7867": "Ġsquirrels",
  "7868": "Ġmarri",
  "7869": "Ġbathrobe",
  "7870": "Ġhanger",
  "7871": "Ġloaded",
  "7872": "Ġslippery",
  "7873": "Ġdisturbed",
  "7874": "Ġavocad",
  "7875": "Ġintroduce",
  "7876": "Ġsir.",
  "7877": "Ġhurricane",
  "7878": "Pet",
  "7879": "Paul",
  "7880": "oed",
  "7881": "Ġsoak",
  "7882": "Ġthat.\"",
  "7883": "Ġfork.",
  "7884": "Ġcaring",
  "7885": "Ġknowled",
  "7886": "Ġslim",
  "7887": "Ġbears.",
  "7888": "Ġscared!",
  "7889": "Ġhurt.\"",
  "7890": "ĠSally's",
  "7891": "Ġaccident.",
  "7892": "Ġchairs",
  "7893": "Ġhappened!",
  "7894": "Ġbicycle.",
  "7895": "Ġradio.",
  "7896": "obbie",
  "7897": "Ġunderneath",
  "7898": "Ġintroduced",
  "7899": "Bobby",
  "7900": "Ell",
  "7901": "ike.",
  "7902": "rop",
  "7903": "ĠHoppy",
  "7904": "Ġhers.",
  "7905": "Ġhero.",
  "7906": "Ġsoaked",
  "7907": "Ġdo!\"",
  "7908": "Ġdid!",
  "7909": "Ġfluffy.",
  "7910": "Ġtry?\"",
  "7911": "Ġsnowball",
  "7912": "Ġmoney,",
  "7913": "Ġcupc",
  "7914": "Ġnuts.",
  "7915": "Ġtwirling",
  "7916": "Ġclown.",
  "7917": "\"Because",
  "7918": "Ġapologiz",
  "7919": "\"Yuck",
  "7920": "Ġcereal.",
  "7921": "Ġclaws.",
  "7922": "ĠSuzy",
  "7923": "ĠTiny",
  "7924": "ĠJake.",
  "7925": "ĠBen?\"",
  "7926": "ia,",
  "7927": "Ġâ€œS",
  "7928": "Ġprince.",
  "7929": "Ġdress-up",
  "7930": "Ġreluct",
  "7931": "Ġgathering",
  "7932": "Ġenvelope.",
  "7933": "Ġoranges",
  "7934": "Ġdoggy",
  "7935": "Ġsen",
  "7936": "Ġheat",
  "7937": "Ġwha",
  "7938": "Ġeat,",
  "7939": "Ġjogg",
  "7940": "Ġâ€œM",
  "7941": "Ġsure.",
  "7942": "Ġrules",
  "7943": "uffy,",
  "7944": "Ġtouching",
  "7945": "Ġrested",
  "7946": "Ġcrib.",
  "7947": "ĠBenny's",
  "7948": "Ġmoments",
  "7949": "Ġcards.",
  "7950": "Ġseeds.",
  "7951": "Ġdough.",
  "7952": "Ġmaze.",
  "7953": "Ġgrinned",
  "7954": "Ġsneaked",
  "7955": "Ġloving",
  "7956": "Ġclick",
  "7957": "Ġnews",
  "7958": "ĠEnd",
  "7959": "Ġimage",
  "7960": "Ġhome!\"",
  "7961": "\"Wait",
  "7962": "Ġboats.",
  "7963": "Afterwards,",
  "7964": "Ġsteep",
  "7965": "Ġfunny,",
  "7966": "Ġeggs,",
  "7967": "Ġmistakes.",
  "7968": "Ġtrack.",
  "7969": "ĠBetsy",
  "7970": "Ġlaughter",
  "7971": "Ġearlier.",
  "7972": "Ġbehave.",
  "7973": "Ġmassage",
  "7974": "Fluffy",
  "7975": "ĠBell",
  "7976": "umble",
  "7977": "Ġtwin",
  "7978": "Ġevening",
  "7979": "Ġhouses.",
  "7980": "Ġletâ€™s",
  "7981": "Ġtoy.\"",
  "7982": "Ġplanes",
  "7983": "Ġchair,",
  "7984": "Ġexclaimed",
  "7985": "Ġcuddle",
  "7986": "Ġflashlight.",
  "7987": "Ġslippery.",
  "7988": "Ġurged",
  "7989": "Ġgrown-ups",
  "7990": "Ġforth,",
  "7991": "Ġcrowd",
  "7992": "Soph",
  "7993": "Ġmom!",
  "7994": "Ġis!\"",
  "7995": "Ġwhat.",
  "7996": "Ġranch",
  "7997": "Ġcar.\"",
  "7998": "Ġball?\"",
  "7999": "Ġfast!\"",
  "8000": "Ġhome,\"",
  "8001": "Ġparts",
  "8002": "\"Here",
  "8003": "Ġsweater.",
  "8004": "Ġbananas",
  "8005": "Ġproblem,",
  "8006": "Ġbackyard,",
  "8007": "Ġincluded",
  "8008": "Pete",
  "8009": "Ġfart",
  "8010": "Ġann",
  "8011": "ĠJen.",
  "8012": "Ġthing,",
  "8013": "iff.",
  "8014": "Ġshining,",
  "8015": "Ġdragged",
  "8016": "Ġ\"Here",
  "8017": "Ġcrab.",
  "8018": "Ġcelebrate.",
  "8019": "Ġhall.",
  "8020": "No",
  "8021": "ĠHop",
  "8022": "ica",
  "8023": "Ġall!",
  "8024": "Ġgreet",
  "8025": "Ġprinted",
  "8026": "Ġsquirrel,",
  "8027": "ĠTommy's",
  "8028": "Ġwet,",
  "8029": "Ġbirthday,",
  "8030": "Ġâ€œIâ€™m",
  "8031": "Ġluck.",
  "8032": "Ġsubway",
  "8033": "Ġcrunchy",
  "8034": "Ġunicorn",
  "8035": "ern",
  "8036": "Ġmouse,",
  "8037": "Ġpitch",
  "8038": "king.",
  "8039": "Ġchance.",
  "8040": "Ġtastes",
  "8041": "ĠJenny.",
  "8042": "Ġsurprised!",
  "8043": "Ġproject",
  "8044": "Ġtrains.",
  "8045": "Ġwheat.",
  "8046": "ĠStop",
  "8047": "Ġprice",
  "8048": "Today,",
  "8049": "Ġdisgusting.",
  "8050": "Ġmicroscope.",
  "8051": "Ġchimney.",
  "8052": "Ġvacation",
  "8053": "Ġhide-and-seek",
  "8054": "Ġlower",
  "8055": "Ġcat's",
  "8056": "Ġofficer",
  "8057": "Tom's",
  "8058": "Ġunex",
  "8059": "ĠLucy,",
  "8060": "ĠRemy",
  "8061": "Ġspots",
  "8062": "iggy",
  "8063": "Ġdoctors",
  "8064": "Ġjoy!",
  "8065": "Ġclap.",
  "8066": "Ġrough.",
  "8067": "Ġpermission",
  "8068": "Ġunexpect",
  "8069": "\"Tim",
  "8070": "Ġtip",
  "8071": "erry.",
  "8072": "Ġbend",
  "8073": "fully.",
  "8074": "Ġtoy!",
  "8075": "ĠRa",
  "8076": "Ġsoftly.",
  "8077": "Ġbath,",
  "8078": "Ġwindows.",
  "8079": "Ġslides.",
  "8080": "Ġworry,\"",
  "8081": "Ġdifficult.",
  "8082": "Ġargue.",
  "8083": "ĠFinally",
  "8084": "Ġtugged",
  "8085": "Ġairport.",
  "8086": "Ġceiling",
  "8087": "Ġdestination.",
  "8088": "Ġtoast.",
  "8089": "Ġpan.",
  "8090": "Ġsee?\"",
  "8091": "ĠLike",
  "8092": "ĠLizz",
  "8093": "ĠFirst,",
  "8094": "Ġparents,",
  "8095": "Ġshoes,",
  "8096": "avi",
  "8097": "Ġlions",
  "8098": "Ġdeser",
  "8099": "Ġbike,",
  "8100": "Ġnormal.",
  "8101": "Ġpalace.",
  "8102": "Ġstretching",
  "8103": "Ġsafety.",
  "8104": "eady,",
  "8105": "Ġbecoming",
  "8106": "Mar",
  "8107": "Ġtummy.",
  "8108": "Ġstable.",
  "8109": "Ġleap",
  "8110": "Ġwonder.",
  "8111": "Ġmean?\"",
  "8112": "Ġbunch",
  "8113": "Ġpolit",
  "8114": "ĠLila,",
  "8115": "Ġforget.",
  "8116": "Ġafraid,",
  "8117": "ĠLeo.",
  "8118": "Ġnervous,",
  "8119": "\"Bye,",
  "8120": "Ġdiamond.",
  "8121": "Ġrubbing",
  "8122": "Ġspaghetti.",
  "8123": "Ġfascinated",
  "8124": "Ġtruly",
  "8125": "Ġti",
  "8126": "Ġinch",
  "8127": "Ġyucky",
  "8128": "Ġ\"She",
  "8129": "Ġplenty",
  "8130": "Ġfriend,\"",
  "8131": "Ġname,",
  "8132": "Ġpoking",
  "8133": "ĠEveryday",
  "8134": "Ġqueen.",
  "8135": "Ġ\"To",
  "8136": "Ġtrapped",
  "8137": "Ġhere?",
  "8138": "Ġmatched",
  "8139": "Ġjuicy.",
  "8140": "Ġ\"Bye,",
  "8141": "Ġbananas.",
  "8142": "pot,",
  "8143": "Ġshelter.",
  "8144": "uzie",
  "8145": "ĠKatie",
  "8146": "Ġluxur",
  "8147": "How",
  "8148": "row,",
  "8149": "ress.",
  "8150": "ppy.",
  "8151": "Ġnames.",
  "8152": "Ġfound!\"",
  "8153": "Ġ\"Will",
  "8154": "Ġteasing",
  "8155": "Ġmatch.",
  "8156": "Ġcream,",
  "8157": "Ġexploring,",
  "8158": "ĠAlways",
  "8159": "Ġpuppy,",
  "8160": "Ġrefused.",
  "8161": "ĠBeth",
  "8162": "emember,",
  "8163": "Ġson.",
  "8164": "Ġmill.",
  "8165": "Ġhelp!",
  "8166": "Ġsadly.",
  "8167": "Ġ\"Would",
  "8168": "Ġeats",
  "8169": "Ġbest.\"",
  "8170": "Ġsurprises.",
  "8171": "Ġâ€œCan",
  "8172": "ĠPoppy",
  "8173": "Ġhappens.",
  "8174": "Ġamazement.",
  "8175": "Ġsweet,",
  "8176": "Ġmonkeys,",
  "8177": "Ġround,",
  "8178": "Ġcheese,",
  "8179": "Ġeagle",
  "8180": "Ġpouring",
  "8181": "Ġunlocked",
  "8182": "Ġflavor",
  "8183": "Ġpout",
  "8184": "ĠAbb",
  "8185": "Ġleash.",
  "8186": "Ġblink",
  "8187": "ĠFor",
  "8188": "Ġbeauty.",
  "8189": "Ġchef",
  "8190": "Ġsorry,\"",
  "8191": "Ġsurprises"
}